unsigned char g_tiny_embedding_conv[] = {
  0x20, 0x00, 0x00, 0x00, 0x54, 0x46, 0x4c, 0x33, 0x00, 0x00, 0x00, 0x00,
  0x14, 0x00, 0x20, 0x00, 0x1c, 0x00, 0x18, 0x00, 0x14, 0x00, 0x10, 0x00,
  0x0c, 0x00, 0x00, 0x00, 0x08, 0x00, 0x04, 0x00, 0x14, 0x00, 0x00, 0x00,
  0x1c, 0x00, 0x00, 0x00, 0x1c, 0x00, 0x00, 0x00, 0x74, 0x00, 0x00, 0x00,
  0x14, 0x1a, 0x00, 0x00, 0x24, 0x1a, 0x00, 0x00, 0xe8, 0x22, 0x00, 0x00,
  0x03, 0x00, 0x00, 0x00, 0x00, 0x00, 0x00, 0x00, 0x02, 0x00, 0x00, 0x00,
  0x34, 0x00, 0x00, 0x00, 0x04, 0x00, 0x00, 0x00, 0xdc, 0xff, 0xff, 0xff,
  0x11, 0x00, 0x00, 0x00, 0x04, 0x00, 0x00, 0x00, 0x13, 0x00, 0x00, 0x00,
  0x43, 0x4f, 0x4e, 0x56, 0x45, 0x52, 0x53, 0x49, 0x4f, 0x4e, 0x5f, 0x4d,
  0x45, 0x54, 0x41, 0x44, 0x41, 0x54, 0x41, 0x00, 0x08, 0x00, 0x0c, 0x00,
  0x08, 0x00, 0x04, 0x00, 0x08, 0x00, 0x00, 0x00, 0x10, 0x00, 0x00, 0x00,
  0x04, 0x00, 0x00, 0x00, 0x13, 0x00, 0x00, 0x00, 0x6d, 0x69, 0x6e, 0x5f,
  0x72, 0x75, 0x6e, 0x74, 0x69, 0x6d, 0x65, 0x5f, 0x76, 0x65, 0x72, 0x73,
  0x69, 0x6f, 0x6e, 0x00, 0x12, 0x00, 0x00, 0x00, 0x9c, 0x19, 0x00, 0x00,
  0x94, 0x19, 0x00, 0x00, 0x74, 0x19, 0x00, 0x00, 0x5c, 0x19, 0x00, 0x00,
  0x3c, 0x19, 0x00, 0x00, 0xac, 0x17, 0x00, 0x00, 0x7c, 0x17, 0x00, 0x00,
  0x6c, 0x03, 0x00, 0x00, 0x3c, 0x03, 0x00, 0x00, 0xac, 0x00, 0x00, 0x00,
  0xa4, 0x00, 0x00, 0x00, 0x9c, 0x00, 0x00, 0x00, 0x94, 0x00, 0x00, 0x00,
  0x8c, 0x00, 0x00, 0x00, 0x84, 0x00, 0x00, 0x00, 0x7c, 0x00, 0x00, 0x00,
  0x5c, 0x00, 0x00, 0x00, 0x04, 0x00, 0x00, 0x00, 0x22, 0xe6, 0xff, 0xff,
  0x04, 0x00, 0x00, 0x00, 0x48, 0x00, 0x00, 0x00, 0x04, 0x00, 0x00, 0x00,
  0xdc, 0xff, 0xff, 0xff, 0x10, 0x00, 0x00, 0x00, 0x24, 0x00, 0x00, 0x00,
  0x00, 0x00, 0x06, 0x00, 0x08, 0x00, 0x04, 0x00, 0x06, 0x00, 0x00, 0x00,
  0x04, 0x00, 0x00, 0x00, 0x01, 0x00, 0x00, 0x00, 0xeb, 0x03, 0x00, 0x00,
  0x08, 0x00, 0x0c, 0x00, 0x08, 0x00, 0x04, 0x00, 0x08, 0x00, 0x00, 0x00,
  0x01, 0x00, 0x00, 0x00, 0x04, 0x00, 0x00, 0x00, 0x06, 0x00, 0x00, 0x00,
  0x32, 0x2e, 0x31, 0x30, 0x2e, 0x30, 0x00, 0x00, 0x76, 0xe6, 0xff, 0xff,
  0x04, 0x00, 0x00, 0x00, 0x10, 0x00, 0x00, 0x00, 0x31, 0x2e, 0x31, 0x34,
  0x2e, 0x30, 0x00, 0x00, 0x00, 0x00, 0x00, 0x00, 0x00, 0x00, 0x00, 0x00,
  0xe0, 0xde, 0xff, 0xff, 0xe4, 0xde, 0xff, 0xff, 0xe8, 0xde, 0xff, 0xff,
  0xec, 0xde, 0xff, 0xff, 0xf0, 0xde, 0xff, 0xff, 0xf4, 0xde, 0xff, 0xff,
  0xaa, 0xe6, 0xff, 0xff, 0x04, 0x00, 0x00, 0x00, 0x80, 0x02, 0x00, 0x00,
  0xf3, 0x6b, 0x26, 0x66, 0xab, 0xe6, 0xb8, 0x14, 0xf3, 0x63, 0x12, 0x4d,
  0xbc, 0xf7, 0xb8, 0x0f, 0xcc, 0x33, 0xf0, 0x1e, 0xbf, 0xe2, 0xa8, 0xf5,
  0xdd, 0x58, 0xfd, 0x25, 0xb2, 0xe6, 0xaf, 0x05, 0xd5, 0x55, 0xfa, 0x3c,
  0xb0, 0xe8, 0xb5, 0x2e, 0xdc, 0x66, 0x26, 0x4c, 0xbb, 0x00, 0xa2, 0x2f,
  0xfd, 0x7f, 0x0e, 0x4e, 0xd0, 0x1b, 0xb1, 0x37, 0xd5, 0x2f, 0xfe, 0xfe,
  0xcf, 0xd4, 0xaf, 0xfd, 0xe0, 0x15, 0xfd, 0xeb, 0xa7, 0xce, 0xc0, 0x01,
  0xaa, 0xf3, 0xdb, 0xd9, 0x95, 0xab, 0xa6, 0xf5, 0xe9, 0xdc, 0x29, 0x2d,
  0x46, 0x55, 0x57, 0x4f, 0xc0, 0xc2, 0x0b, 0xf9, 0x52, 0x2f, 0x56, 0x48,
  0xaf, 0x9f, 0x04, 0xde, 0x47, 0x0f, 0x6a, 0x2b, 0x99, 0x95, 0xfe, 0xd4,
  0x49, 0x10, 0x74, 0x2c, 0x81, 0x8c, 0xd5, 0xdd, 0x23, 0x05, 0x75, 0x34,
  0x8c, 0x9e, 0xcf, 0xd5, 0x17, 0x17, 0x6b, 0x3a, 0x88, 0xaf, 0xb2, 0xd0,
  0x11, 0x0c, 0x49, 0x30, 0x81, 0x94, 0xb6, 0xc2, 0x0c, 0xfe, 0x37, 0x49,
  0x95, 0x8e, 0xb2, 0xc0, 0xfd, 0xff, 0x3e, 0x32, 0x8d, 0x91, 0xcb, 0xb8,
  0xf0, 0xea, 0x39, 0x29, 0x2b, 0x08, 0x1b, 0x0c, 0xee, 0x0a, 0xc2, 0xec,
  0x3e, 0x00, 0x33, 0xfc, 0xf8, 0x06, 0xc6, 0xf3, 0x3c, 0xf9, 0x34, 0xf2,
  0xf1, 0xf2, 0xca, 0xf0, 0x55, 0xfa, 0x41, 0xef, 0xee, 0xf2, 0xd0, 0xf0,
  0x54, 0xf9, 0x45, 0xda, 0xf6, 0xea, 0xcb, 0xdb, 0x67, 0xf6, 0x55, 0xdf,
  0xf5, 0xea, 0xba, 0xe6, 0x7d, 0xfa, 0x5c, 0xd7, 0xfb, 0xd9, 0xd4, 0xd1,
  0x76, 0xfe, 0x60, 0xd3, 0x0d, 0xd5, 0xd3, 0xce, 0x7f, 0xf4, 0x6d, 0xd6,
  0x1b, 0xdc, 0xdd, 0xd4, 0x76, 0xef, 0x69, 0xdc, 0x29, 0xe1, 0xe9, 0xd8,
  0x11, 0xe8, 0x0b, 0x17, 0xff, 0x2d, 0xdd, 0x02, 0x13, 0xe4, 0x24, 0x0f,
  0x12, 0x17, 0xe3, 0xf7, 0x1c, 0xdf, 0x40, 0x01, 0x14, 0xf5, 0xe0, 0xe9,
  0x23, 0xe6, 0x52, 0xf2, 0x1b, 0xee, 0xf0, 0xe0, 0x21, 0xe3, 0x68, 0xed,
  0x31, 0xe9, 0xec, 0xdb, 0x21, 0xe2, 0x74, 0xe9, 0x40, 0xe6, 0x02, 0xcd,
  0x24, 0xda, 0x7f, 0xe1, 0x52, 0xe4, 0x07, 0xc9, 0x23, 0xd8, 0x77, 0xed,
  0x4c, 0xe0, 0x1d, 0xc0, 0x26, 0xd3, 0x77, 0xdf, 0x62, 0xec, 0x1a, 0xca,
  0x1f, 0xbd, 0x7e, 0xcb, 0x69, 0xec, 0x20, 0xcc, 0x5a, 0x7f, 0x2c, 0x15,
  0xdc, 0xf1, 0xef, 0x00, 0x52, 0x4d, 0x28, 0xf6, 0xd9, 0xe6, 0xce, 0x00,
  0x31, 0x34, 0x0b, 0xdd, 0xc3, 0xda, 0xc7, 0xf7, 0x3c, 0x48, 0x18, 0xec,
  0xca, 0xf0, 0xd8, 0xfb, 0x39, 0x48, 0x2d, 0xe8, 0xdd, 0x00, 0xce, 0x01,
  0x2a, 0x17, 0x28, 0xdf, 0xce, 0xdb, 0xd6, 0xf2, 0x34, 0x21, 0x0b, 0xd5,
  0xe1, 0xd2, 0xbf, 0xd9, 0x43, 0x3d, 0x16, 0xe6, 0xd1, 0xe1, 0xc7, 0xe7,
  0x2e, 0x14, 0x09, 0xce, 0xbc, 0xc5, 0xb5, 0xd2, 0x37, 0x17, 0xdf, 0xba,
  0xc7, 0xcf, 0xa4, 0xd2, 0x96, 0xfa, 0xb9, 0xea, 0x81, 0xb3, 0x8e, 0x8e,
  0xba, 0x22, 0xd5, 0xfd, 0xb7, 0xdf, 0xad, 0xce, 0xf8, 0x7b, 0x20, 0x62,
  0x0a, 0x2b, 0x1b, 0x1b, 0xfe, 0x7b, 0x10, 0x56, 0xe5, 0x3b, 0x0a, 0x0d,
  0xe8, 0x4b, 0xed, 0x25, 0xb3, 0x0f, 0xc0, 0xf9, 0xeb, 0x46, 0xdd, 0x20,
  0xc5, 0x0f, 0xdb, 0x0e, 0xe4, 0x5c, 0xec, 0x2d, 0xb1, 0x06, 0xb4, 0xff,
  0xf2, 0x44, 0xe6, 0x00, 0xbe, 0xc9, 0x9d, 0xd1, 0x04, 0x74, 0x0c, 0x40,
  0xdf, 0xfd, 0xd4, 0x1a, 0x16, 0x67, 0x23, 0x36, 0xdf, 0xfe, 0xe8, 0x03,
  0xbf, 0xfa, 0xe1, 0x14, 0xdf, 0x18, 0xe7, 0xf8, 0xe5, 0xff, 0xea, 0x0f,
  0xd1, 0x0d, 0xd4, 0xe2, 0xee, 0xfa, 0xc9, 0xf5, 0xbf, 0xef, 0xb0, 0xd7,
  0x16, 0x17, 0xeb, 0xfc, 0xb8, 0xde, 0x9c, 0xd0, 0x36, 0x3d, 0xe9, 0x04,
  0xba, 0xd9, 0x8d, 0xd1, 0x2e, 0x4f, 0xf3, 0x0e, 0xc4, 0xdb, 0x92, 0xc7,
  0x4e, 0x55, 0x04, 0x1e, 0xe2, 0xf9, 0xb0, 0xee, 0x51, 0x76, 0x25, 0x31,
  0xed, 0xfc, 0xde, 0xed, 0x4d, 0x7f, 0x32, 0x60, 0x25, 0x29, 0xff, 0x31,
  0x28, 0x42, 0x2e, 0x3d, 0x32, 0x1f, 0x24, 0x22, 0x43, 0xf6, 0x5f, 0x10,
  0x30, 0xf7, 0x07, 0xcf, 0x4d, 0xf2, 0x6e, 0x05, 0x2e, 0xee, 0xe9, 0xaf,
  0x52, 0xff, 0x64, 0x06, 0x32, 0xda, 0xe1, 0xb8, 0x60, 0xf6, 0x6c, 0xee,
  0x30, 0xdf, 0xef, 0xac, 0x69, 0xf0, 0x7f, 0xef, 0x30, 0xd4, 0xde, 0xa2,
  0x74, 0xf5, 0x75, 0xe6, 0x34, 0xd5, 0xe0, 0x99, 0x5c, 0xfa, 0x67, 0xe7,
  0x27, 0xd7, 0xd7, 0xa6, 0x5b, 0x03, 0x62, 0xeb, 0x15, 0xd9, 0xbc, 0x99,
  0x4d, 0xfb, 0x52, 0xdd, 0x0c, 0xc9, 0xab, 0x94, 0x1e, 0xec, 0x39, 0xbd,
  0xec, 0xab, 0xad, 0x8d, 0x36, 0xe9, 0xff, 0xff, 0x04, 0x00, 0x00, 0x00,
  0x20, 0x00, 0x00, 0x00, 0xcb, 0x01, 0x00, 0x00, 0xe0, 0xfd, 0xff, 0xff,
  0xf4, 0xfd, 0xff, 0xff, 0xe5, 0xfc, 0xff, 0xff, 0x5f, 0x00, 0x00, 0x00,
  0x30, 0x00, 0x00, 0x00, 0x00, 0x00, 0x00, 0x00, 0x74, 0xfd, 0xff, 0xff,
  0x62, 0xe9, 0xff, 0xff, 0x04, 0x00, 0x00, 0x00, 0x00, 0x14, 0x00, 0x00,
  0xcc, 0x1b, 0xff, 0x09, 0xda, 0xdd, 0xec, 0xdb, 0xcd, 0x4f, 0x2d, 0x11,
  0xe6, 0xe2, 0xfe, 0xe0, 0xb2, 0x13, 0x3f, 0x12, 0xbc, 0xe6, 0xf7, 0xde,
  0x13, 0x1f, 0x27, 0xf1, 0xcf, 0x20, 0xfc, 0xfe, 0x13, 0x07, 0xef, 0xee,
  0x07, 0x09, 0xf4, 0x03, 0x30, 0xc8, 0xf3, 0xeb, 0x0d, 0x0d, 0xff, 0x05,
  0x2f, 0xdc, 0xc6, 0xdb, 0x55, 0x14, 0x01, 0xff, 0x18, 0xf9, 0xca, 0xed,
  0x14, 0x1d, 0x17, 0xe0, 0xc9, 0x15, 0xef, 0x02, 0xcf, 0xdf, 0xe8, 0xd1,
  0xd0, 0x4c, 0x1d, 0x29, 0xcf, 0xd6, 0xec, 0xeb, 0x99, 0x0f, 0x52, 0x2b,
  0xc0, 0xda, 0xf8, 0xdd, 0x06, 0x20, 0x31, 0xfb, 0xce, 0x24, 0x01, 0xf4,
  0x09, 0x00, 0xf0, 0xea, 0xfa, 0x06, 0xf9, 0x0e, 0x23, 0xbc, 0xff, 0xf6,
  0x0a, 0x15, 0x00, 0x08, 0x1f, 0xd5, 0xb5, 0xe1, 0x3d, 0x17, 0xfa, 0xea,
  0x19, 0xf6, 0xd3, 0xef, 0x10, 0x1b, 0x16, 0xdb, 0xbd, 0x18, 0xe8, 0x04,
  0xbd, 0xe2, 0xd0, 0xce, 0xda, 0x3f, 0x1b, 0x24, 0xd7, 0xcf, 0xe4, 0xd9,
  0xb7, 0x1c, 0x33, 0x26, 0xb7, 0xc5, 0xf3, 0xed, 0x0f, 0x1e, 0x2b, 0x08,
  0xd0, 0x2d, 0xfb, 0xf6, 0x18, 0xf2, 0xf5, 0xf9, 0x07, 0xfc, 0xe7, 0x13,
  0x2c, 0xb7, 0xfd, 0x01, 0x17, 0x0f, 0xf3, 0x13, 0x1c, 0xd7, 0xb4, 0xc0,
  0x33, 0x26, 0xf7, 0xe8, 0x1e, 0xe0, 0xc2, 0xf4, 0x1d, 0x2b, 0x0a, 0xdf,
  0xe0, 0x15, 0xdc, 0xea, 0xc6, 0xbe, 0xb5, 0xda, 0xb6, 0x35, 0x0a, 0x1a,
  0xd6, 0xc2, 0xd4, 0xdf, 0xc6, 0x1b, 0x30, 0x3a, 0xc7, 0xc9, 0xea, 0xed,
  0x17, 0x2b, 0x23, 0x01, 0xdb, 0x22, 0xf1, 0xee, 0x1f, 0xfc, 0xf6, 0xf5,
  0xf9, 0xfc, 0xe5, 0x1a, 0x28, 0xd0, 0x01, 0xf9, 0x0c, 0x0d, 0xef, 0x10,
  0x2a, 0xd2, 0xb0, 0xe2, 0x38, 0x35, 0x02, 0xe1, 0x2b, 0xe2, 0xe2, 0xf1,
  0x23, 0x24, 0x16, 0xef, 0xd4, 0x12, 0xc1, 0xd8, 0xc1, 0xbb, 0xc0, 0xd5,
  0xcb, 0x2e, 0xef, 0x2c, 0xa9, 0xc8, 0xd5, 0xdd, 0xbe, 0x28, 0x27, 0x33,
  0xbb, 0xcf, 0xed, 0xc8, 0x17, 0x30, 0x0e, 0x14, 0xf2, 0x30, 0x02, 0xfc,
  0x09, 0x03, 0xff, 0x0a, 0x19, 0xf6, 0xfb, 0x18, 0x21, 0xce, 0x02, 0x06,
  0x1a, 0x05, 0xfe, 0x13, 0x18, 0xde, 0xa6, 0xbc, 0x3e, 0x27, 0xee, 0x0f,
  0x2a, 0xe3, 0xb1, 0xdf, 0x3e, 0x2b, 0x13, 0xe6, 0xe8, 0x2d, 0xb7, 0xb7,
  0xb6, 0xc6, 0x9d, 0xdc, 0xdb, 0x16, 0xe1, 0x08, 0xc8, 0xef, 0xbd, 0xdf,
  0xca, 0x1f, 0x15, 0x2d, 0xc3, 0xe7, 0xdf, 0xe0, 0x01, 0x12, 0x28, 0x09,
  0xe6, 0x2b, 0xea, 0xfe, 0x13, 0x25, 0xff, 0x05, 0x04, 0xf7, 0xd2, 0x1f,
  0xfc, 0xed, 0xfc, 0x15, 0x01, 0x0e, 0xf3, 0x19, 0x28, 0xde, 0xba, 0xcc,
  0x4f, 0x1e, 0xed, 0xf6, 0x17, 0xe8, 0xbb, 0xd4, 0x28, 0x0f, 0xfd, 0xf9,
  0xef, 0x25, 0x99, 0xce, 0xc2, 0xbe, 0xb5, 0xbc, 0xdd, 0x1e, 0xc4, 0x1e,
  0xc8, 0xce, 0xc2, 0xf0, 0xc4, 0x1c, 0x18, 0x2b, 0xce, 0xc5, 0xd1, 0xf6,
  0x07, 0x19, 0x26, 0x04, 0xd3, 0x0c, 0xe1, 0x05, 0x19, 0x20, 0x04, 0x08,
  0x18, 0xe9, 0xde, 0x2b, 0x17, 0xd1, 0x02, 0x13, 0x1b, 0x0e, 0xee, 0x1b,
  0x17, 0xce, 0xb7, 0xa7, 0x42, 0x16, 0xea, 0x01, 0x2b, 0xd4, 0xb2, 0xbd,
  0x0d, 0x07, 0xfa, 0xe7, 0xe0, 0x2d, 0x81, 0xb8, 0xbd, 0xcf, 0xb7, 0xca,
  0xec, 0x0f, 0xd7, 0x03, 0xdc, 0xd3, 0xcb, 0xd9, 0xca, 0x21, 0x14, 0x22,
  0xfd, 0xe0, 0xda, 0xf8, 0x0b, 0x29, 0x29, 0x2c, 0xf3, 0x10, 0xf0, 0x02,
  0x15, 0x0c, 0x0c, 0x17, 0x05, 0xd4, 0xda, 0x25, 0x24, 0xca, 0x05, 0x1a,
  0x19, 0x13, 0xfa, 0x27, 0x3f, 0xca, 0x99, 0xbc, 0x29, 0x23, 0xe9, 0x01,
  0x28, 0xec, 0xa9, 0xb6, 0x1c, 0x1e, 0x01, 0xec, 0xe4, 0x03, 0xa5, 0xa3,
  0xcc, 0xc3, 0xc6, 0xb4, 0xf0, 0xf3, 0xf2, 0xe4, 0xe3, 0xd7, 0xd0, 0xd7,
  0xc9, 0x17, 0x0b, 0x2b, 0xf2, 0xc1, 0xdb, 0xf2, 0x07, 0x28, 0x2c, 0x08,
  0xfa, 0xfb, 0xdb, 0xef, 0x20, 0xff, 0xfb, 0x0a, 0x06, 0xd5, 0xd9, 0x2e,
  0x09, 0xd9, 0x08, 0x24, 0x17, 0x0d, 0xf1, 0x28, 0x2a, 0xde, 0xa8, 0x9a,
  0x0d, 0x0e, 0xe4, 0xfd, 0x40, 0xe6, 0xb1, 0xb0, 0x03, 0x21, 0xf6, 0xec,
  0xec, 0x11, 0x98, 0xb7, 0xad, 0xd6, 0xdb, 0xb8, 0xe6, 0xf3, 0xd1, 0xf1,
  0xee, 0xea, 0xc7, 0xe2, 0xd9, 0x1e, 0x0d, 0x1f, 0x09, 0xd3, 0xc6, 0xee,
  0x16, 0x25, 0x0f, 0x0f, 0x06, 0x17, 0xcf, 0xfd, 0x0d, 0xf7, 0xf2, 0x0e,
  0xfc, 0xce, 0xbc, 0x24, 0x0f, 0xf2, 0xfc, 0x20, 0x0d, 0xfc, 0xdc, 0x48,
  0x3e, 0xcf, 0x9f, 0x9e, 0x25, 0x17, 0xe5, 0xf0, 0x30, 0xd1, 0xad, 0xbb,
  0x06, 0x1d, 0xf7, 0xdc, 0x02, 0x09, 0xde, 0xf3, 0xec, 0x26, 0x04, 0xd4,
  0xf3, 0x1c, 0x02, 0x01, 0xe5, 0x34, 0x18, 0xdd, 0x02, 0x07, 0x17, 0x00,
  0x02, 0x31, 0x14, 0xe4, 0x18, 0x0a, 0x0f, 0x0f, 0x14, 0x1f, 0xfd, 0xf9,
  0x12, 0xdd, 0xff, 0x01, 0x21, 0x01, 0xfb, 0x09, 0x1c, 0xd2, 0xef, 0xfc,
  0x19, 0xfa, 0xeb, 0x00, 0x1b, 0xe7, 0xe8, 0x0d, 0x2c, 0xf7, 0xf6, 0x11,
  0x0d, 0xe5, 0xfb, 0x11, 0x29, 0x02, 0xfc, 0x1a, 0xf3, 0x10, 0xcd, 0xe6,
  0xfe, 0x1e, 0xf5, 0xdb, 0xf2, 0x12, 0xfe, 0xf7, 0xff, 0x32, 0x0f, 0xe6,
  0xf6, 0x08, 0x04, 0xf1, 0xfb, 0x30, 0x1c, 0xe4, 0x11, 0x03, 0x17, 0x05,
  0x05, 0x1f, 0xff, 0xf6, 0x0f, 0xe2, 0x00, 0xff, 0x13, 0xfc, 0xf1, 0x02,
  0x0a, 0xd3, 0xf1, 0xf5, 0x16, 0xf4, 0xf7, 0x00, 0x0b, 0xe1, 0xe0, 0x00,
  0x25, 0x00, 0xf3, 0x03, 0x0d, 0xec, 0xf9, 0x10, 0x1d, 0x06, 0x04, 0x0c,
  0x1f, 0x15, 0xcd, 0xd3, 0x01, 0x20, 0xec, 0xcb, 0x08, 0x1a, 0xea, 0xea,
  0xf3, 0x25, 0x08, 0xd4, 0x0c, 0x0f, 0x02, 0xfd, 0xf5, 0x29, 0x1b, 0xd2,
  0x0f, 0x06, 0x0c, 0x0b, 0x07, 0x1e, 0x13, 0xe0, 0x1c, 0xe4, 0x03, 0x0b,
  0x0e, 0x04, 0xed, 0xf5, 0x18, 0xd1, 0xf8, 0x05, 0x18, 0xfe, 0xf6, 0xfc,
  0x18, 0xd2, 0xf7, 0x09, 0x22, 0x02, 0xf2, 0xf9, 0x15, 0xdf, 0xf5, 0x15,
  0x15, 0x0d, 0xff, 0xf1, 0x2c, 0x14, 0xc5, 0xc7, 0x12, 0x12, 0xbc, 0xd4,
  0x29, 0x15, 0xf4, 0xf8, 0x04, 0x31, 0xdd, 0xd8, 0x2e, 0x0f, 0xfd, 0xfa,
  0xfc, 0x24, 0x00, 0xe2, 0x1b, 0x0f, 0x23, 0x28, 0x0f, 0x21, 0xf2, 0xe0,
  0x1f, 0xf0, 0x0c, 0x16, 0x0c, 0xf6, 0xf3, 0xec, 0x25, 0xe4, 0x04, 0x0f,
  0x20, 0xfa, 0xf4, 0x04, 0x25, 0xdc, 0xff, 0x0f, 0x23, 0x07, 0xf3, 0xe6,
  0x23, 0xe9, 0x0b, 0x28, 0x1c, 0x0f, 0x03, 0xf6, 0x35, 0x20, 0xa5, 0xad,
  0x15, 0x07, 0xa6, 0xe2, 0x13, 0x1a, 0xd4, 0xd8, 0x14, 0x17, 0xd5, 0xf3,
  0xf3, 0x0b, 0x0a, 0xf3, 0x07, 0x1a, 0xe6, 0xec, 0xff, 0x13, 0x0a, 0xfc,
  0x26, 0x08, 0xdd, 0xec, 0x1c, 0xf9, 0x04, 0x0e, 0x1b, 0xf0, 0xe9, 0xfb,
  0x29, 0xea, 0x02, 0x07, 0x30, 0xe8, 0xeb, 0x0a, 0x1d, 0xda, 0xfc, 0xff,
  0x32, 0xf2, 0xeb, 0xeb, 0x21, 0xf1, 0x00, 0x0c, 0x27, 0x01, 0xed, 0x04,
  0x05, 0x2b, 0x95, 0xa3, 0xcf, 0xc0, 0xa0, 0xd9, 0xf4, 0x32, 0xd1, 0xd0,
  0xe5, 0xd2, 0xb9, 0xd4, 0xdf, 0x0e, 0xf5, 0xfa, 0xdf, 0xdc, 0xcc, 0xfb,
  0xd4, 0x21, 0x12, 0x15, 0xf6, 0xd5, 0xe1, 0xfa, 0x0c, 0x06, 0x0f, 0x1c,
  0x10, 0xc9, 0xec, 0x25, 0x1b, 0xf4, 0x09, 0x15, 0x31, 0xdc, 0xf5, 0x15,
  0x20, 0xe2, 0x00, 0x16, 0x30, 0xd7, 0xee, 0x22, 0x18, 0x04, 0xfe, 0x1b,
  0x2b, 0xdd, 0xf2, 0x32, 0x0a, 0x18, 0x87, 0xa9, 0xb5, 0xd6, 0xa2, 0xd3,
  0x08, 0x11, 0xb4, 0xca, 0xc4, 0xcd, 0xbe, 0xd2, 0xe6, 0x07, 0xf7, 0xf1,
  0xdd, 0xe9, 0xd0, 0xe4, 0xdb, 0x0e, 0x0e, 0x0e, 0xec, 0xe8, 0xdb, 0xf8,
  0xf8, 0x00, 0x15, 0x20, 0x00, 0xdf, 0xe7, 0x1c, 0x12, 0xdf, 0x0d, 0x16,
  0x28, 0xe9, 0xeb, 0x20, 0x20, 0xda, 0xf3, 0x09, 0x1c, 0xe5, 0xe1, 0x12,
  0x1e, 0xf0, 0x01, 0x0b, 0x08, 0xfa, 0xf4, 0x15, 0x06, 0x13, 0x88, 0x9c,
  0xae, 0xd0, 0xa0, 0xaa, 0x0c, 0x13, 0xba, 0xdb, 0xcf, 0xe3, 0xc2, 0xe6,
  0xe0, 0x08, 0x0a, 0x09, 0xd2, 0xce, 0xca, 0xf5, 0xe5, 0x07, 0x18, 0x2b,
  0x0a, 0xe2, 0xd0, 0x04, 0x06, 0xeb, 0x20, 0x2b, 0x18, 0xda, 0xdb, 0x1e,
  0x0e, 0xd3, 0x16, 0x23, 0x35, 0xe0, 0xdc, 0x21, 0x15, 0xd9, 0x08, 0x0a,
  0x1f, 0xe9, 0xd0, 0xfb, 0x07, 0xf5, 0xf5, 0x02, 0xfb, 0xf4, 0xe4, 0x00,
  0xfe, 0x1f, 0x98, 0xa6, 0xa9, 0xd3, 0xc8, 0xb9, 0x0f, 0xe7, 0xd6, 0xce,
  0xde, 0xee, 0xc9, 0xf0, 0xe4, 0x05, 0xf1, 0xfc, 0xf1, 0xdf, 0xcf, 0xe2,
  0xee, 0xee, 0x0d, 0x5b, 0xfd, 0xd2, 0xcf, 0xfd, 0x09, 0xe7, 0x3d, 0x3d,
  0x12, 0xc6, 0xdf, 0x22, 0x11, 0xd8, 0x22, 0x3e, 0x1f, 0xd6, 0xdb, 0x29,
  0x11, 0xd8, 0x0a, 0x1b, 0x1c, 0xe1, 0xd7, 0x24, 0x1b, 0xef, 0x0f, 0x1d,
  0xf7, 0xee, 0xd0, 0x0e, 0x00, 0x16, 0x81, 0xc2, 0xb1, 0xeb, 0xd9, 0xc4,
  0x20, 0xf5, 0xcd, 0xf5, 0xe5, 0x01, 0xd6, 0xf7, 0x09, 0x13, 0xf2, 0x0c,
  0x13, 0xe1, 0xcb, 0xf2, 0xe1, 0xfd, 0x1d, 0x47, 0xf2, 0xc3, 0xb5, 0x01,
  0x0e, 0xe7, 0x42, 0x67, 0x0c, 0xce, 0xce, 0x27, 0x18, 0xd4, 0x40, 0x60,
  0x2d, 0xe0, 0xdb, 0x2c, 0x19, 0xde, 0x36, 0x23, 0x17, 0xd8, 0xcd, 0x2b,
  0x12, 0x00, 0x09, 0x20, 0x07, 0xdc, 0xbf, 0x05, 0x16, 0x9f, 0x1c, 0x01,
  0x50, 0x37, 0xed, 0x41, 0x1d, 0x9a, 0x26, 0x08, 0x32, 0x02, 0xdc, 0x3a,
  0xf0, 0x0a, 0x12, 0xe7, 0xff, 0x12, 0xd5, 0x04, 0x13, 0x00, 0xda, 0x05,
  0xf9, 0x13, 0xfb, 0xeb, 0xdf, 0x0f, 0x0b, 0x0b, 0xe1, 0x17, 0x03, 0xfd,
  0xda, 0x3d, 0x13, 0x13, 0xc1, 0x20, 0x0e, 0xf1, 0xf7, 0x35, 0x17, 0x14,
  0xd1, 0x21, 0x0d, 0xea, 0x1b, 0x1d, 0x11, 0x0c, 0xf7, 0x20, 0x0a, 0xe4,
  0x0a, 0x9e, 0x21, 0x13, 0x23, 0x27, 0xf5, 0x32, 0x09, 0xa5, 0x17, 0xfd,
  0x17, 0xfb, 0xd7, 0x28, 0xfc, 0x03, 0x15, 0xf0, 0xfb, 0x12, 0xd5, 0xe0,
  0x0a, 0x06, 0xe4, 0xe9, 0x03, 0x14, 0xfc, 0xc3, 0xe8, 0x08, 0x02, 0x05,
  0xe9, 0x1d, 0x00, 0xe8, 0xd0, 0x27, 0x0b, 0x07, 0xc4, 0x29, 0x07, 0xf3,
  0xed, 0x2a, 0x0c, 0x04, 0xdf, 0x24, 0x05, 0xe1, 0x11, 0x18, 0x08, 0x0d,
  0xf8, 0x1a, 0x06, 0xe4, 0x21, 0x95, 0x41, 0x12, 0x45, 0x30, 0xf3, 0x46,
  0x29, 0x81, 0x41, 0x0e, 0x32, 0xe9, 0xca, 0x2f, 0x09, 0x08, 0x2f, 0xe9,
  0x0f, 0xf7, 0xe0, 0xe2, 0x26, 0x04, 0xce, 0xf7, 0x15, 0x10, 0x16, 0xd6,
  0x05, 0x0a, 0x02, 0xfe, 0xf4, 0x1d, 0x1d, 0xd3, 0xea, 0x1a, 0x0c, 0x0e,
  0xc9, 0x25, 0x19, 0xd2, 0x02, 0x24, 0x12, 0x03, 0xdb, 0x1e, 0x15, 0xd6,
  0x2c, 0x13, 0x05, 0xf7, 0xf6, 0x18, 0x0e, 0xd2, 0x3f, 0x9e, 0x3d, 0x22,
  0x3e, 0x2a, 0xdb, 0x51, 0x29, 0xa4, 0x3b, 0x21, 0x2f, 0x05, 0xbb, 0x27,
  0x30, 0x03, 0x3d, 0xf6, 0x17, 0x04, 0xbb, 0x16, 0x36, 0xff, 0xe8, 0xf3,
  0x1d, 0x0c, 0xe7, 0xe2, 0x2b, 0x07, 0xe5, 0xfe, 0x01, 0x10, 0x0a, 0xc0,
  0x07, 0x1a, 0xf6, 0x09, 0xd8, 0x07, 0x22, 0xb4, 0x21, 0x1d, 0x17, 0x0c,
  0xe2, 0x0b, 0x24, 0xcc, 0x2c, 0x21, 0x1d, 0x09, 0x04, 0x0c, 0x19, 0xc3,
  0x2e, 0xa9, 0x66, 0x3a, 0x5c, 0x20, 0xd2, 0x3d, 0x0e, 0x8f, 0x5a, 0x40,
  0x27, 0xe3, 0xb4, 0x35, 0x0a, 0x01, 0x37, 0xfb, 0x22, 0x00, 0xc0, 0x0e,
  0x23, 0xf6, 0xe8, 0xcc, 0x48, 0x01, 0xdb, 0xe1, 0x03, 0x00, 0xc5, 0xed,
  0x16, 0xfb, 0xf4, 0xd6, 0xe7, 0x17, 0xca, 0x0e, 0xee, 0xdf, 0x1c, 0xb6,
  0x15, 0x14, 0xfe, 0x1e, 0xf5, 0xfa, 0x33, 0xdf, 0x15, 0x1b, 0x16, 0x06,
  0x04, 0x08, 0x3d, 0xd6, 0xfb, 0xb4, 0x70, 0x60, 0x23, 0xfa, 0xc5, 0x39,
  0x0b, 0x8c, 0x59, 0x3c, 0x21, 0xe3, 0x9a, 0x4b, 0xf0, 0xfd, 0x34, 0xec,
  0x01, 0xbf, 0x99, 0x09, 0x05, 0xfd, 0xd1, 0xd0, 0x09, 0xd8, 0xbf, 0xdf,
  0xd9, 0xfe, 0xad, 0xd2, 0xf6, 0xcd, 0xe3, 0xfa, 0xc4, 0x1a, 0xb7, 0x02,
  0xc5, 0xb4, 0xde, 0xcf, 0xf3, 0x19, 0xdb, 0x26, 0xd2, 0xbd, 0xed, 0x0b,
  0x03, 0x22, 0xe8, 0x0c, 0x10, 0xe8, 0xfd, 0x0c, 0x00, 0xbe, 0x68, 0x50,
  0x44, 0xed, 0xb6, 0x3b, 0xfb, 0xaf, 0x6e, 0x33, 0x27, 0xea, 0x8b, 0x2e,
  0xfe, 0xef, 0x11, 0xe9, 0xf4, 0xcd, 0xad, 0x18, 0x08, 0xe6, 0xba, 0xb8,
  0x05, 0xd4, 0xe4, 0xeb, 0x02, 0xfc, 0xb9, 0xc5, 0x0b, 0xef, 0xf6, 0xdd,
  0xcd, 0x0e, 0x9f, 0xd0, 0xca, 0xc8, 0xeb, 0xdc, 0xf1, 0x0f, 0xd5, 0xe0,
  0xdd, 0xc4, 0xde, 0x19, 0x0b, 0x18, 0xcb, 0xe5, 0x01, 0xd9, 0xe8, 0x0e,
  0x11, 0xb3, 0x47, 0x26, 0x3f, 0xd8, 0xb1, 0x3b, 0x2c, 0xc8, 0x36, 0x31,
  0x3e, 0xbf, 0x90, 0x4f, 0xf2, 0xdd, 0x08, 0xe9, 0xfd, 0xc6, 0xa5, 0xfd,
  0xf8, 0xe9, 0xc2, 0xd1, 0x0f, 0xd6, 0xde, 0xf9, 0x04, 0xe7, 0xb7, 0xe1,
  0x0a, 0x00, 0x03, 0xeb, 0xda, 0x10, 0xbb, 0xcc, 0xd4, 0xdc, 0xf2, 0xdf,
  0xf3, 0x0a, 0xce, 0xcc, 0xd6, 0xcf, 0xee, 0x04, 0x25, 0x27, 0xcb, 0xcb,
  0xf9, 0xe8, 0xef, 0xfc, 0x37, 0xb1, 0x30, 0x0a, 0x1e, 0xd3, 0xc1, 0x43,
  0x14, 0xdf, 0x2d, 0x03, 0x10, 0xc4, 0xa1, 0x39, 0xf1, 0xcf, 0xf9, 0xee,
  0xed, 0xc5, 0xb6, 0x15, 0xe6, 0xdb, 0xc4, 0xc5, 0xfa, 0xd9, 0xe1, 0xf3,
  0x04, 0xd2, 0xc8, 0xd8, 0x11, 0x1d, 0x09, 0xd9, 0xd2, 0xda, 0xe4, 0xbc,
  0xe5, 0xf6, 0xf4, 0xf8, 0xff, 0xff, 0xc1, 0xdf, 0xcd, 0xea, 0xee, 0xef,
  0x18, 0x23, 0xb0, 0xde, 0xe8, 0xfe, 0xf4, 0x06, 0x2a, 0xde, 0xf9, 0xfb,
  0x4d, 0xcb, 0xc3, 0x3d, 0x29, 0xef, 0x23, 0x01, 0xf0, 0xc8, 0xc6, 0x0e,
  0xf3, 0xbf, 0xe6, 0xf1, 0xd0, 0xa8, 0xaf, 0x0f, 0xef, 0xd4, 0xbe, 0xdb,
  0xd8, 0xce, 0xef, 0xde, 0xff, 0xc0, 0xd9, 0xe0, 0x09, 0x1c, 0xff, 0xed,
  0xf7, 0xe5, 0xfd, 0xf0, 0xd1, 0xfd, 0xf3, 0xd9, 0xee, 0x00, 0xd4, 0xc7,
  0xd7, 0xe8, 0xe8, 0xe8, 0x04, 0x2a, 0xd5, 0xb9, 0xd5, 0xf3, 0xed, 0xec,
  0x2c, 0xce, 0x0c, 0x05, 0x5b, 0xec, 0xe8, 0x7f, 0x4f, 0xb7, 0x2d, 0x0b,
  0x71, 0xd7, 0xe5, 0x67, 0x17, 0xd7, 0x37, 0x13, 0x45, 0xdd, 0xf4, 0x3a,
  0xe0, 0xd7, 0x2d, 0x07, 0x1a, 0xed, 0xf9, 0x10, 0xf3, 0xfa, 0x0f, 0xf7,
  0x10, 0x0c, 0x06, 0x01, 0xf9, 0x00, 0x07, 0xf3, 0xfe, 0x03, 0x04, 0xf9,
  0xff, 0xf8, 0x0b, 0xf3, 0xc2, 0x0f, 0x1c, 0xc4, 0xf1, 0xd8, 0x01, 0xdc,
  0xe5, 0x09, 0x0d, 0xd8, 0x35, 0xbe, 0x0c, 0x02, 0x65, 0xe9, 0xf1, 0x6c,
  0x22, 0xb1, 0x15, 0x06, 0x4f, 0xd7, 0xe5, 0x69, 0x12, 0xde, 0x14, 0x0c,
  0x2d, 0xd7, 0xec, 0x26, 0xdd, 0xc9, 0x1c, 0xfd, 0x14, 0xf0, 0x14, 0x0e,
  0xfc, 0xed, 0x1a, 0xee, 0x0e, 0x0a, 0x0e, 0xf9, 0xec, 0xe9, 0x08, 0xed,
  0xfd, 0xf0, 0x01, 0xfb, 0xe6, 0xf2, 0x20, 0xe9, 0xd2, 0x0d, 0x0a, 0xba,
  0xfc, 0xce, 0x07, 0xe9, 0xe7, 0x00, 0xfc, 0xd8, 0x31, 0xad, 0x14, 0x05,
  0x62, 0xdb, 0xd7, 0x6a, 0x1a, 0x9c, 0x1c, 0x06, 0x48, 0xd9, 0xcf, 0x61,
  0xf8, 0xe2, 0x1c, 0xf5, 0x19, 0xdf, 0xe0, 0x26, 0xda, 0xd2, 0x0f, 0x08,
  0xfe, 0xfc, 0x0e, 0xf1, 0x00, 0xf5, 0x2b, 0xf8, 0xeb, 0x10, 0x15, 0xfd,
  0xeb, 0xcf, 0x0d, 0xf8, 0xe8, 0xf6, 0x09, 0xe0, 0xec, 0xe6, 0x2d, 0xf2,
  0xdf, 0x07, 0x17, 0xb6, 0xee, 0xcb, 0xf7, 0xd0, 0xef, 0x06, 0xff, 0xce,
  0x21, 0xd2, 0x1c, 0x0d, 0x5e, 0xca, 0xe2, 0x65, 0x0b, 0xcd, 0x32, 0x07,
  0x4a, 0xd4, 0xdb, 0x5c, 0xf4, 0xe8, 0x29, 0xf8, 0x1c, 0xe4, 0xe1, 0x32,
  0xd2, 0xcd, 0x1b, 0x03, 0x0f, 0xf7, 0x1a, 0xec, 0xdd, 0xf4, 0x37, 0x06,
  0xf3, 0x1b, 0x1c, 0xd8, 0xea, 0xdb, 0x1b, 0x01, 0xf1, 0x00, 0x0b, 0xdd,
  0xe4, 0xee, 0x3d, 0xec, 0xe5, 0x2a, 0x19, 0xb1, 0xdc, 0xc0, 0x0a, 0xdb,
  0xeb, 0x0a, 0xfc, 0xf0, 0x30, 0xdb, 0x10, 0x14, 0x51, 0xde, 0xdc, 0x73,
  0x1f, 0xdc, 0x3c, 0x0c, 0x44, 0xd0, 0xd5, 0x45, 0x1d, 0xf0, 0x20, 0x03,
  0x25, 0xd4, 0xe4, 0x2f, 0xe2, 0x06, 0x1c, 0x06, 0xf1, 0x04, 0x07, 0x02,
  0xe2, 0x0b, 0x41, 0x14, 0xd6, 0x1a, 0x0a, 0xe8, 0xfc, 0xef, 0x24, 0xfe,
  0xe1, 0x0a, 0x10, 0xdd, 0xf5, 0xdd, 0x4c, 0xf0, 0xfa, 0x19, 0x18, 0xc5,
  0x02, 0xbc, 0x27, 0xd4, 0xec, 0xf8, 0x03, 0xdb, 0x3c, 0xed, 0x09, 0xf4,
  0x5a, 0xec, 0xc1, 0x4f, 0x2e, 0x05, 0x35, 0x0c, 0x48, 0xd4, 0xbc, 0x46,
  0x07, 0xfa, 0x36, 0x06, 0x42, 0xef, 0xdc, 0x22, 0xcb, 0x09, 0x1e, 0x0e,
  0x19, 0x0a, 0x12, 0xdc, 0xfc, 0x13, 0x45, 0x0f, 0xe8, 0x1c, 0x13, 0xe6,
  0xe9, 0xf6, 0x29, 0x06, 0x03, 0xf9, 0x0f, 0xdd, 0xec, 0xf7, 0x53, 0x0a,
  0xdc, 0x17, 0x12, 0xba, 0xef, 0xc1, 0x37, 0xe6, 0x02, 0xfc, 0x08, 0xe3,
  0x24, 0xf9, 0x0a, 0x12, 0x3a, 0xbf, 0xba, 0x42, 0x44, 0x13, 0x55, 0x13,
  0x42, 0xb8, 0xac, 0x64, 0x0e, 0xfe, 0x5e, 0x00, 0x21, 0xd4, 0xe0, 0x2b,
  0xd8, 0x1d, 0x0e, 0x05, 0xf9, 0xff, 0x14, 0xf1, 0xfd, 0x23, 0x4e, 0x0f,
  0xe1, 0x19, 0x26, 0xd8, 0xea, 0xe4, 0x29, 0x03, 0xf3, 0x0a, 0x0e, 0xe5,
  0x14, 0xd1, 0x3c, 0xfc, 0x02, 0x1c, 0x14, 0xda, 0xf9, 0xb7, 0x22, 0xf3,
  0xf2, 0x01, 0x0c, 0xe5, 0x19, 0xf1, 0x11, 0xfb, 0x2a, 0xd4, 0xb2, 0x29,
  0x28, 0x08, 0x6b, 0x2d, 0x41, 0xd7, 0xaf, 0x58, 0x0a, 0x03, 0x53, 0x12,
  0x15, 0xea, 0xde, 0x2d, 0xd6, 0x23, 0xff, 0xee, 0xee, 0xfb, 0x06, 0xc9,
  0x03, 0x01, 0x26, 0x0d, 0xd3, 0x18, 0x26, 0xe3, 0xf1, 0xf7, 0x27, 0x01,
  0xed, 0x14, 0x18, 0xdb, 0x04, 0xc3, 0x27, 0x03, 0xdf, 0x1e, 0x14, 0xde,
  0xfa, 0xab, 0x1c, 0xf4, 0xfe, 0xff, 0xfd, 0xf2, 0x31, 0xe9, 0x07, 0x0b,
  0x2b, 0xe8, 0xba, 0x13, 0x13, 0x19, 0x48, 0x0d, 0x1e, 0xf8, 0xaf, 0x42,
  0x00, 0xff, 0x36, 0xf4, 0x04, 0xe5, 0xd0, 0xfb, 0xdb, 0x24, 0xfc, 0xc8,
  0xf5, 0xf5, 0x05, 0xdc, 0x0c, 0x1d, 0x1a, 0x05, 0xd7, 0x26, 0x20, 0xca,
  0xee, 0xd9, 0x3f, 0x04, 0xdc, 0x11, 0x20, 0xcd, 0x1b, 0xdb, 0x26, 0xeb,
  0x06, 0x15, 0x16, 0xe4, 0xec, 0xc5, 0x08, 0xe7, 0xf4, 0x00, 0xf4, 0x0d,
  0x21, 0xe7, 0x18, 0xf4, 0x0b, 0xf3, 0xb8, 0x4b, 0x2b, 0x24, 0x73, 0x32,
  0x4a, 0xda, 0xb4, 0x50, 0xfd, 0x01, 0x5d, 0xf1, 0x29, 0xef, 0xd8, 0x22,
  0xe0, 0x32, 0xfc, 0xe0, 0xf3, 0xd1, 0xfb, 0xd8, 0xf7, 0x2f, 0x35, 0x04,
  0xad, 0x16, 0x32, 0xbe, 0xfd, 0xd1, 0x3c, 0x1a, 0xe7, 0x26, 0x2d, 0xd1,
  0xfa, 0xbf, 0x35, 0x01, 0x0f, 0x0f, 0x20, 0xf0, 0x0b, 0xbc, 0x36, 0xf5,
  0xee, 0x0c, 0xfe, 0x1c, 0x05, 0xf5, 0x21, 0x0b, 0x20, 0xbb, 0xd5, 0x33,
  0x24, 0xe0, 0x46, 0x15, 0x3e, 0xb6, 0xc4, 0x52, 0x0e, 0x0c, 0x4a, 0x04,
  0x20, 0xbd, 0xd4, 0x33, 0xf5, 0x45, 0x23, 0x03, 0xff, 0xfe, 0x02, 0xdd,
  0x34, 0x22, 0xff, 0x0a, 0xd2, 0x0f, 0x02, 0xca, 0x68, 0xea, 0x0b, 0x19,
  0x2d, 0x0c, 0xf9, 0x03, 0x2f, 0xfd, 0x0d, 0x0d, 0x07, 0x0b, 0xfe, 0xdf,
  0x26, 0xf9, 0x1a, 0x0d, 0xf2, 0x0e, 0x09, 0x20, 0x12, 0xd1, 0x23, 0x10,
  0x0e, 0xc3, 0xcd, 0x21, 0x0a, 0xe4, 0x37, 0x21, 0x1d, 0xb3, 0xb4, 0x2e,
  0x08, 0x04, 0x27, 0xfb, 0x17, 0xc7, 0xd7, 0x2a, 0xe1, 0x39, 0x20, 0x0c,
  0xe9, 0x02, 0x0b, 0xca, 0x15, 0x11, 0xfb, 0x07, 0xc5, 0x0e, 0x07, 0xbb,
  0x53, 0xdf, 0x0b, 0x11, 0x12, 0x0c, 0xf6, 0xe9, 0xfd, 0x00, 0x10, 0x05,
  0xeb, 0x0e, 0x02, 0xca, 0x05, 0xf7, 0x0e, 0x06, 0xf2, 0x05, 0x01, 0x17,
  0xfc, 0xd5, 0x2a, 0x0f, 0x1e, 0xd7, 0xd8, 0x2b, 0xed, 0xdc, 0x41, 0x15,
  0x24, 0xb3, 0xb2, 0x4e, 0x0c, 0x0b, 0x43, 0xfe, 0x11, 0xc1, 0xc9, 0x38,
  0xe7, 0x2c, 0x0c, 0xf7, 0xd9, 0xe7, 0x0c, 0xbc, 0x27, 0x0d, 0xe9, 0x0d,
  0xc5, 0x08, 0x09, 0xac, 0x4d, 0xc6, 0x11, 0x07, 0x11, 0x02, 0x01, 0xe1,
  0x12, 0xf2, 0x0d, 0x0b, 0xff, 0x00, 0x04, 0xc4, 0x09, 0xf2, 0x10, 0x08,
  0xf3, 0xff, 0x02, 0x05, 0xdc, 0xc5, 0x2f, 0x0b, 0x28, 0xe1, 0xe5, 0x3b,
  0xf0, 0xee, 0x41, 0x18, 0x0e, 0xb8, 0xb8, 0x42, 0x16, 0x09, 0x40, 0xf2,
  0x09, 0xd5, 0xbd, 0x32, 0xf1, 0x29, 0x01, 0xea, 0xe2, 0xea, 0xd5, 0xbd,
  0x36, 0x0f, 0xe5, 0x06, 0xbf, 0xf5, 0xe6, 0xb1, 0x61, 0xc6, 0xfb, 0x03,
  0x20, 0x06, 0xef, 0xdf, 0x1f, 0xf3, 0x0c, 0x00, 0xff, 0xfe, 0x08, 0xca,
  0x03, 0xf9, 0x0a, 0x07, 0xee, 0xf8, 0x0d, 0x0a, 0x1f, 0xc2, 0x34, 0x17,
  0x12, 0xf1, 0xe4, 0x48, 0x02, 0xc4, 0x3e, 0x12, 0x12, 0xcb, 0xdb, 0x3d,
  0x22, 0x02, 0x58, 0x03, 0x04, 0xd4, 0xe3, 0x14, 0xe4, 0x25, 0x00, 0x03,
  0xd9, 0xd1, 0xe9, 0x9c, 0x49, 0x15, 0xca, 0x02, 0xce, 0x09, 0xf6, 0xcb,
  0x70, 0xc4, 0x07, 0x05, 0x3c, 0xf2, 0xec, 0xeb, 0x13, 0xf3, 0x0a, 0x0a,
  0x1a, 0xf8, 0x02, 0xd8, 0xf3, 0xfc, 0x16, 0x16, 0x01, 0xe9, 0x0c, 0x0d,
  0x25, 0xb2, 0x50, 0x2a, 0x53, 0xf7, 0xda, 0x54, 0x1f, 0xcc, 0x51, 0x17,
  0x3a, 0xe5, 0xa9, 0x4d, 0x2c, 0x01, 0x3d, 0xf6, 0x05, 0xf6, 0x96, 0x2c,
  0xe6, 0x14, 0xdf, 0xce, 0xcd, 0xd0, 0xba, 0xc1, 0x3a, 0xfc, 0xab, 0x0c,
  0xd4, 0xf1, 0xd7, 0xcd, 0x60, 0xc0, 0xf9, 0x06, 0x42, 0xf9, 0xd1, 0xdf,
  0x07, 0xe7, 0x01, 0x0b, 0x1f, 0xe5, 0xe6, 0xe8, 0xe4, 0xed, 0x1a, 0x1b,
  0xf1, 0xe5, 0xf3, 0x0d, 0x3c, 0xa7, 0x5e, 0x27, 0x55, 0xde, 0xb5, 0x44,
  0x22, 0xb9, 0x5c, 0x30, 0x37, 0xe3, 0x90, 0x52, 0x29, 0x03, 0x37, 0xef,
  0x0a, 0xe0, 0x88, 0x16, 0xdc, 0x16, 0xf5, 0xd8, 0xdf, 0xa2, 0xaf, 0xb2,
  0x3c, 0xfd, 0x86, 0x10, 0xd9, 0xe4, 0xd3, 0xd3, 0x54, 0xb2, 0xec, 0x00,
  0x36, 0xf2, 0xc6, 0xed, 0x00, 0xe4, 0xfc, 0x0d, 0x19, 0xe8, 0xcf, 0xe5,
  0xe7, 0xeb, 0x10, 0x25, 0xf5, 0xce, 0xa9, 0x2c, 0x34, 0xbb, 0x7f, 0x49,
  0x49, 0xeb, 0x98, 0x54, 0x1f, 0xd0, 0x71, 0x3b, 0x26, 0xda, 0x8a, 0x4d,
  0x28, 0xff, 0x21, 0xc5, 0x03, 0xd6, 0x95, 0x42, 0xd8, 0x22, 0xa9, 0xad,
  0xd9, 0xa2, 0xcd, 0xa9, 0x35, 0x03, 0x98, 0x05, 0xcf, 0x11, 0xec, 0xc1,
  0x53, 0xb4, 0xdd, 0xf6, 0x42, 0x03, 0xe0, 0xed, 0xfa, 0xdf, 0x06, 0xfe,
  0x29, 0xe1, 0xaa, 0xee, 0xec, 0xe9, 0x04, 0x32, 0xe7, 0xbc, 0x9e, 0x1a,
  0x35, 0xca, 0x65, 0x28, 0x46, 0x05, 0x9a, 0x46, 0x16, 0xd3, 0x63, 0x03,
  0x17, 0xdd, 0xbd, 0x35, 0x20, 0xf6, 0xfe, 0xec, 0x00, 0xcc, 0xa5, 0x1b,
  0xe1, 0x1e, 0xb4, 0xc3, 0xce, 0xa5, 0xbd, 0xc0, 0x18, 0xeb, 0x9c, 0xf8,
  0xd6, 0xf9, 0xf4, 0xcc, 0x2c, 0xac, 0xcc, 0xec, 0x3c, 0x07, 0xe1, 0xf8,
  0x0f, 0xd7, 0x00, 0xd5, 0x1f, 0xe6, 0xbf, 0xef, 0xf1, 0xe7, 0xec, 0x26,
  0xff, 0xd2, 0x93, 0x2a, 0x36, 0xaa, 0x4d, 0x0d, 0x4e, 0xe3, 0xbd, 0x59,
  0x2b, 0xe6, 0x3d, 0xf0, 0x2d, 0xba, 0x8a, 0x6a, 0x31, 0x08, 0x16, 0xc8,
  0x08, 0xb2, 0xa0, 0x13, 0xd1, 0x3b, 0xb9, 0xc9, 0xd2, 0x91, 0xb0, 0xb8,
  0x15, 0x03, 0x9c, 0xec, 0xd5, 0x09, 0xf0, 0xdf, 0x44, 0xac, 0xf2, 0xd2,
  0x3b, 0x0c, 0xdb, 0x0c, 0x23, 0xd1, 0xfa, 0xc7, 0x37, 0xfa, 0xb9, 0x12,
  0x0c, 0xd9, 0xf6, 0xe1, 0x11, 0xd7, 0x96, 0x1a, 0x02, 0x40, 0xc6, 0xf7,
  0xd1, 0x2b, 0x01, 0xbf, 0xf5, 0x25, 0xda, 0xfb, 0xdf, 0x2b, 0x18, 0xb9,
  0x12, 0x07, 0xea, 0xf4, 0x03, 0x17, 0x0d, 0xce, 0x05, 0x0e, 0xec, 0x25,
  0x2b, 0xef, 0xf7, 0x19, 0xf4, 0x05, 0x0e, 0x16, 0x2f, 0xe2, 0xf4, 0x35,
  0x08, 0x27, 0x0f, 0x1f, 0x20, 0xef, 0xf4, 0x25, 0xff, 0x38, 0x00, 0x1c,
  0xec, 0xeb, 0xf4, 0x2e, 0x12, 0x40, 0x16, 0x1e, 0x01, 0xfa, 0xf1, 0x3f,
  0x01, 0x2f, 0xd0, 0xf3, 0xe0, 0x0d, 0x04, 0xc9, 0x05, 0x08, 0xd7, 0xf1,
  0xd6, 0x2e, 0x11, 0xc7, 0x04, 0x09, 0xd9, 0xf7, 0xfe, 0x1a, 0x14, 0xbd,
  0x04, 0x0b, 0xf4, 0x2c, 0x1c, 0xf0, 0xfc, 0xef, 0xf6, 0x04, 0x0c, 0x18,
  0x11, 0xe2, 0x04, 0x2b, 0xfd, 0x29, 0xfc, 0x0c, 0x0d, 0xea, 0x04, 0x1d,
  0x07, 0x3a, 0xfa, 0x15, 0xf5, 0xea, 0x08, 0x28, 0x19, 0x36, 0x0d, 0x1d,
  0xfa, 0xf4, 0xfc, 0x4a, 0x08, 0x2e, 0xbd, 0xe5, 0xd6, 0x15, 0x00, 0xd5,
  0x0d, 0x0f, 0xdf, 0xf4, 0xe3, 0x2c, 0x2b, 0xb7, 0x0f, 0x06, 0xdd, 0xe9,
  0x08, 0x1f, 0x16, 0xe3, 0xf7, 0x13, 0xf5, 0x20, 0x31, 0xde, 0xf6, 0x05,
  0xe3, 0x05, 0x2b, 0x2e, 0x12, 0xd3, 0xf9, 0x36, 0xf7, 0x3b, 0x1e, 0x31,
  0x01, 0xe0, 0xf4, 0x29, 0x07, 0x3c, 0xee, 0x1e, 0xfb, 0xe0, 0xfa, 0x2c,
  0x0a, 0x48, 0xfe, 0x1e, 0xfb, 0xec, 0xfa, 0x32, 0x00, 0x2e, 0xbb, 0xe2,
  0xea, 0x1b, 0x0e, 0xd2, 0x14, 0x09, 0xcb, 0xd3, 0xdf, 0x38, 0x1f, 0xbc,
  0xf3, 0x09, 0xd2, 0xf1, 0x01, 0x0c, 0x13, 0xe2, 0xe6, 0x00, 0xfe, 0x28,
  0x0e, 0xe2, 0x0b, 0x1b, 0xde, 0xfd, 0x39, 0x32, 0x0e, 0xde, 0x08, 0x22,
  0xed, 0x2a, 0x1a, 0x2d, 0x03, 0xda, 0xfb, 0x26, 0xfe, 0x30, 0xf4, 0x22,
  0xf1, 0xdb, 0xf6, 0x22, 0x08, 0x41, 0x0a, 0x27, 0x04, 0xf8, 0xed, 0x3c,
  0x11, 0x23, 0xbd, 0xfc, 0xfc, 0x38, 0x1c, 0xc7, 0x10, 0x0d, 0xc0, 0xf1,
  0xf1, 0x41, 0x22, 0xce, 0xf8, 0x02, 0xd3, 0xf6, 0x01, 0x25, 0x19, 0xea,
  0xe1, 0xfd, 0x08, 0x31, 0xf2, 0xe4, 0x0d, 0xef, 0xdd, 0x00, 0x26, 0x46,
  0xfe, 0xe2, 0x0c, 0x18, 0xe6, 0x2f, 0x13, 0x33, 0xf6, 0xe1, 0xff, 0x27,
  0x18, 0x21, 0xfc, 0x31, 0xf4, 0xe8, 0x03, 0x19, 0x0e, 0x34, 0x07, 0x32,
  0xf0, 0xf2, 0x00, 0x33, 0x17, 0x1b, 0x9e, 0xd7, 0xfc, 0x3f, 0x03, 0xc3,
  0x05, 0x0d, 0xa4, 0xe0, 0xdd, 0x39, 0x19, 0xb4, 0xf8, 0x0c, 0xc9, 0xea,
  0xf3, 0x37, 0x05, 0xc6, 0xe0, 0xff, 0xf5, 0x20, 0x16, 0x06, 0xf9, 0x07,
  0xf3, 0x26, 0x2e, 0x3a, 0x26, 0x08, 0xfb, 0x14, 0xfd, 0x3d, 0x0e, 0x28,
  0x17, 0x05, 0xf1, 0x16, 0x23, 0x38, 0xfa, 0x3c, 0xfb, 0x06, 0xed, 0xfa,
  0x1a, 0x40, 0x12, 0x28, 0x00, 0x14, 0xe3, 0x20, 0x08, 0x23, 0x99, 0xdf,
  0x0d, 0x0a, 0xfb, 0xc7, 0x0e, 0x24, 0xb3, 0xce, 0xed, 0x16, 0x0a, 0xa1,
  0x09, 0x09, 0xc5, 0xe1, 0xe8, 0x0d, 0x18, 0xcc, 0xe0, 0x0b, 0xfd, 0x30,
  0x0a, 0xe2, 0x01, 0x06, 0xeb, 0x17, 0x3c, 0x42, 0x26, 0xe1, 0x0c, 0x06,
  0xfe, 0x3b, 0x14, 0x34, 0x0f, 0xe0, 0x01, 0x10, 0x02, 0x50, 0x13, 0x40,
  0x0a, 0xe1, 0xf7, 0x0f, 0x06, 0x46, 0x14, 0x34, 0x02, 0xf0, 0xf8, 0x03,
  0x1e, 0x1b, 0x88, 0xbe, 0xf5, 0x16, 0x0f, 0xc5, 0x09, 0x0c, 0x9b, 0xc5,
  0xdf, 0x1a, 0x16, 0x9e, 0x08, 0x11, 0xa6, 0xcc, 0xe9, 0x13, 0x29, 0xc1,
  0xe9, 0x07, 0xed, 0x07, 0xfc, 0xe9, 0xf3, 0xf8, 0xdd, 0x1a, 0x44, 0x41,
  0x15, 0xda, 0x0b, 0x06, 0xf3, 0x3f, 0x24, 0x28, 0x04, 0xdb, 0x06, 0x10,
  0x0d, 0x3a, 0x0f, 0x2e, 0xee, 0xe3, 0xf5, 0x08, 0x02, 0x4f, 0x02, 0x22,
  0xf9, 0xf1, 0x08, 0x0d, 0x1a, 0xfa, 0xa0, 0x96, 0xfb, 0x20, 0xf4, 0xbb,
  0x13, 0xff, 0xa2, 0xa8, 0xf7, 0x2e, 0x02, 0xa2, 0x14, 0x08, 0xab, 0xac,
  0x04, 0x2b, 0x07, 0xd3, 0xe5, 0x00, 0xdc, 0x03, 0xff, 0xf7, 0xef, 0xea,
  0xec, 0xfe, 0x23, 0x4c, 0x0a, 0xed, 0xf4, 0xf9, 0xdb, 0x43, 0x20, 0x19,
  0xed, 0xf1, 0x0c, 0x0b, 0x10, 0x42, 0x08, 0x1e, 0xfb, 0xf4, 0xee, 0x05,
  0x0c, 0x42, 0x05, 0x12, 0xf2, 0xfd, 0xfc, 0x0f, 0x37, 0x00, 0x96, 0x8c,
  0xe9, 0x28, 0xf8, 0xb3, 0x23, 0xeb, 0x81, 0xa5, 0xe4, 0x35, 0x0c, 0xbf,
  0x20, 0x1a, 0xae, 0xc6, 0xf0, 0x33, 0xf8, 0xc8, 0xfb, 0x23, 0xdb, 0xed,
  0x21, 0xf5, 0xe8, 0xea, 0xe0, 0x24, 0x59, 0x5d, 0x1d, 0xed, 0xf8, 0x12,
  0xfd, 0x4a, 0x42, 0x3c, 0x03, 0xec, 0xe1, 0x0e, 0x11, 0x36, 0xfe, 0x24,
  0xfe, 0xe2, 0xdd, 0x1d, 0x1c, 0x5b, 0xfd, 0x1c, 0xfd, 0xfe, 0xe7, 0x04,
  0xf0, 0x43, 0xdb, 0xe3, 0xe2, 0xd7, 0xce, 0xe9, 0xf3, 0x4a, 0xf4, 0x0b,
  0xce, 0xfd, 0xf0, 0xec, 0xfc, 0x16, 0x15, 0x10, 0xd4, 0x01, 0x04, 0xe3,
  0xed, 0x3a, 0x2e, 0x19, 0xfd, 0xf6, 0x10, 0xeb, 0x07, 0x33, 0x1a, 0x1f,
  0x00, 0x03, 0x11, 0xf6, 0x20, 0x20, 0x12, 0x0f, 0x13, 0xf9, 0x01, 0xff,
  0x1b, 0x0c, 0x2b, 0x2a, 0x19, 0xed, 0x00, 0x20, 0x16, 0x0c, 0x28, 0x26,
  0x1a, 0x02, 0x06, 0x31, 0xf8, 0x39, 0xc7, 0xda, 0xe4, 0xd2, 0xb4, 0xe3,
  0x07, 0x41, 0xe1, 0xea, 0xda, 0xdd, 0xc7, 0xe9, 0xfc, 0x0e, 0x0b, 0x0f,
  0xd1, 0xe1, 0xf6, 0xdf, 0xdd, 0x2f, 0x12, 0x2a, 0xf1, 0xe8, 0x14, 0x02,
  0xff, 0x20, 0x12, 0x0f, 0xf4, 0xf8, 0x12, 0xf2, 0x16, 0x10, 0x0d, 0x0c,
  0x0a, 0xf8, 0x06, 0xf8, 0xfa, 0x0a, 0x17, 0x20, 0x13, 0xef, 0xf7, 0x11,
  0x18, 0x03, 0x17, 0x17, 0x0a, 0xff, 0x04, 0x33, 0x17, 0x37, 0xb4, 0xc3,
  0xda, 0xd4, 0xa9, 0xee, 0xf0, 0x32, 0xd3, 0xee, 0xd6, 0xd1, 0xba, 0xd7,
  0xda, 0x07, 0xf6, 0xfe, 0xd7, 0xcd, 0xcf, 0xeb, 0xd1, 0x23, 0x10, 0x1f,
  0xf0, 0xcc, 0xf1, 0xf7, 0xf0, 0x24, 0x29, 0x21, 0xec, 0xe2, 0x19, 0xf6,
  0xfe, 0x1d, 0x0f, 0x1a, 0x12, 0xf3, 0x0a, 0x06, 0xff, 0x11, 0x20, 0x1a,
  0x05, 0xe5, 0x02, 0x07, 0x07, 0x09, 0x10, 0x1b, 0xfa, 0xfc, 0x04, 0x21,
  0x01, 0x2c, 0xd7, 0xb8, 0xde, 0xd2, 0xa6, 0xeb, 0xf0, 0x43, 0xdb, 0xd3,
  0xd9, 0xd3, 0xbe, 0xd2, 0xd5, 0x06, 0xfd, 0xfa, 0xe5, 0xd0, 0xc6, 0xe3,
  0xbd, 0x22, 0x17, 0x17, 0xdb, 0xc1, 0xf8, 0xef, 0xcb, 0x23, 0x17, 0x27,
  0xe4, 0xdf, 0x18, 0x00, 0xed, 0x07, 0x0d, 0x20, 0x03, 0xf2, 0x08, 0x01,
  0xe1, 0x02, 0x29, 0x21, 0xfd, 0xe9, 0x0f, 0x14, 0x03, 0x0b, 0x1d, 0x14,
  0x07, 0xf9, 0x12, 0x2b, 0xf8, 0x3d, 0xd0, 0xdd, 0xe9, 0xca, 0xd5, 0xff,
  0xf7, 0x41, 0xf0, 0xde, 0xe0, 0xcb, 0xda, 0xf7, 0xe9, 0x02, 0xfa, 0x04,
  0xe2, 0xd2, 0xe8, 0xee, 0xc5, 0x21, 0x10, 0x15, 0xd6, 0xb9, 0x03, 0xe7,
  0xe4, 0x12, 0x20, 0x0e, 0xd4, 0xe0, 0x09, 0xfb, 0xfc, 0x01, 0x17, 0x14,
  0xf4, 0xfa, 0x06, 0x06, 0xf5, 0xf7, 0x16, 0xfa, 0xeb, 0xe4, 0xf9, 0xf2,
  0xfc, 0x08, 0x0e, 0xfb, 0xf2, 0xfd, 0xfa, 0x16, 0x0d, 0x1b, 0xea, 0xeb,
  0xd6, 0xe7, 0xe5, 0x01, 0x11, 0x35, 0xd9, 0x03, 0xf4, 0xf1, 0xe1, 0xfc,
  0xf7, 0xfd, 0xef, 0x0c, 0xdc, 0xf2, 0xd8, 0xef, 0xd6, 0x3d, 0x02, 0x12,
  0xec, 0xd7, 0xdb, 0xef, 0xfd, 0x37, 0x03, 0x13, 0xce, 0xe4, 0x00, 0xef,
  0x0c, 0x18, 0x20, 0x17, 0x06, 0xf4, 0x20, 0x01, 0x09, 0x06, 0x1d, 0x0b,
  0x01, 0xe2, 0x0e, 0x0f, 0x18, 0x03, 0x18, 0x04, 0x0e, 0xf7, 0x1a, 0x2d,
  0xf9, 0x24, 0xed, 0xe8, 0xea, 0xe9, 0xdc, 0xf1, 0xf3, 0x26, 0xf4, 0x06,
  0xfe, 0xe3, 0xe1, 0x02, 0xe5, 0xff, 0x10, 0x10, 0xf9, 0xde, 0xcf, 0x05,
  0xf5, 0x1d, 0xf5, 0xff, 0x00, 0xda, 0xb9, 0xf3, 0xfa, 0x20, 0xf3, 0x0c,
  0xc4, 0xd9, 0xde, 0xeb, 0x13, 0x0c, 0x1a, 0x1b, 0x02, 0xff, 0x19, 0x0a,
  0x0a, 0x0c, 0x10, 0x07, 0x00, 0xf4, 0x1f, 0x07, 0xfc, 0xf5, 0x19, 0x07,
  0xff, 0x0a, 0x2d, 0x0d, 0x00, 0x16, 0xdd, 0xe5, 0xde, 0xec, 0xef, 0xf5,
  0x0f, 0x18, 0xe5, 0xed, 0xf3, 0xec, 0xf9, 0x11, 0x0b, 0xfa, 0x01, 0xf9,
  0xff, 0xe1, 0xd8, 0x16, 0xef, 0x26, 0xef, 0xdf, 0xfa, 0xb3, 0xbf, 0xfe,
  0xf8, 0x18, 0xdc, 0x06, 0xd9, 0xd0, 0xbf, 0xde, 0x10, 0xfd, 0x21, 0x2f,
  0x09, 0xe8, 0xd9, 0x11, 0x06, 0xfa, 0x0e, 0x15, 0xef, 0xe2, 0xf9, 0x0d,
  0xf9, 0xf2, 0x3a, 0x17, 0xf6, 0xfa, 0x20, 0x2a, 0x06, 0xf4, 0xff, 0xdb,
  0xe4, 0xe1, 0xdd, 0xec, 0x05, 0x08, 0xe6, 0xdf, 0xef, 0xf6, 0xeb, 0xe9,
  0x07, 0xea, 0xe6, 0xf3, 0x09, 0xd5, 0xcb, 0xfb, 0xe6, 0x14, 0xd4, 0xe5,
  0xe1, 0xb7, 0xb9, 0xef, 0x03, 0x20, 0xb0, 0xfc, 0xc7, 0xb1, 0xa0, 0xe8,
  0x10, 0x16, 0x02, 0x0c, 0xf8, 0xee, 0xc1, 0x0f, 0xfe, 0x00, 0x0b, 0x0a,
  0xe2, 0xc3, 0xb7, 0x14, 0x0f, 0xf9, 0x02, 0x18, 0x09, 0xe2, 0xd8, 0x2c,
  0x13, 0xff, 0xeb, 0xea, 0xe9, 0xf9, 0xe4, 0x01, 0xf9, 0x03, 0xf3, 0xd2,
  0xfd, 0x02, 0xcc, 0x0d, 0x09, 0xe4, 0xec, 0xe5, 0x03, 0xdc, 0xc6, 0x09,
  0xfa, 0x0b, 0xbe, 0xc8, 0xff, 0xa1, 0x9d, 0xfc, 0xf0, 0xf5, 0x99, 0xdc,
  0xe0, 0xae, 0x81, 0xe2, 0x0f, 0x01, 0xdd, 0xeb, 0x01, 0xce, 0x8f, 0x1c,
  0x04, 0x03, 0xd6, 0x0b, 0xfc, 0xa8, 0x94, 0xfd, 0xf6, 0xfd, 0xf5, 0xff,
  0xf9, 0xcd, 0xa9, 0x2a, 0xef, 0x42, 0xe3, 0xff, 0xde, 0xe9, 0xee, 0xda,
  0xe2, 0x2e, 0xf8, 0x01, 0xe1, 0x08, 0xf7, 0xea, 0xea, 0x0b, 0xf6, 0x09,
  0xe6, 0xf9, 0xf3, 0xf0, 0xef, 0x18, 0x0e, 0x13, 0xfa, 0xec, 0xfa, 0x07,
  0xe4, 0x18, 0x03, 0x0b, 0xf2, 0xf7, 0xff, 0xf5, 0xf5, 0x2c, 0x04, 0x0b,
  0xfa, 0x03, 0x08, 0x05, 0x03, 0x3a, 0x01, 0x0b, 0xf4, 0xfc, 0xfb, 0x05,
  0x15, 0x18, 0x0a, 0x1b, 0x10, 0x0d, 0xfc, 0x24, 0xfa, 0x38, 0xe0, 0xfc,
  0xe4, 0xfd, 0xed, 0xea, 0xf5, 0x2a, 0xf8, 0xff, 0xe9, 0xfb, 0x03, 0xe6,
  0xec, 0x0c, 0xf5, 0x0f, 0xdb, 0xf6, 0xf7, 0xe9, 0xe6, 0x1b, 0x0c, 0x16,
  0xfb, 0xeb, 0xfb, 0xf8, 0xf1, 0x10, 0x0a, 0x07, 0xef, 0xf7, 0x06, 0xf8,
  0xf5, 0x26, 0x07, 0x09, 0xfc, 0xfc, 0x07, 0x06, 0xfe, 0x2e, 0xfe, 0x1a,
  0xec, 0xfa, 0xff, 0xfa, 0x15, 0x1a, 0x02, 0x19, 0x09, 0x0a, 0x00, 0x19,
  0xf3, 0x33, 0xe6, 0xf8, 0xf8, 0xe7, 0xea, 0xe8, 0xe7, 0x27, 0xf6, 0xe9,
  0xe8, 0xf7, 0xf2, 0xe1, 0xe2, 0x09, 0xf3, 0x04, 0xec, 0xee, 0xfe, 0xe2,
  0xea, 0x12, 0x0f, 0x2a, 0xe8, 0xef, 0x05, 0xfb, 0xdd, 0x23, 0x10, 0x0e,
  0xec, 0xea, 0x08, 0xfc, 0xfb, 0x35, 0x07, 0x14, 0xff, 0xf8, 0x03, 0x08,
  0x00, 0x45, 0x0e, 0x1a, 0xe9, 0xfc, 0xfe, 0xf8, 0x0d, 0x2e, 0x0b, 0x07,
  0x09, 0x0b, 0xfd, 0x22, 0x11, 0x22, 0xde, 0xea, 0xf3, 0xe3, 0xe5, 0xeb,
  0x04, 0x14, 0xec, 0xf4, 0xf7, 0xfb, 0xfa, 0xe6, 0xed, 0x0e, 0xe8, 0x02,
  0xe4, 0xe3, 0xf4, 0xe5, 0xe4, 0x13, 0xec, 0x29, 0xf4, 0xed, 0x0b, 0xf7,
  0xe6, 0x18, 0x12, 0x15, 0xef, 0xe7, 0x11, 0xf8, 0xfe, 0x31, 0x0a, 0x13,
  0xfa, 0xf7, 0x09, 0x02, 0x16, 0x3c, 0x0b, 0x2a, 0xec, 0xf8, 0x02, 0x03,
  0x16, 0x33, 0x0b, 0x15, 0xf2, 0x06, 0xfc, 0x20, 0x04, 0x22, 0xe4, 0xee,
  0xfa, 0xd9, 0xf1, 0xf1, 0xf2, 0x13, 0xe4, 0xf3, 0xe4, 0x05, 0x04, 0xe6,
  0xf2, 0x0a, 0xdf, 0x0c, 0xec, 0xec, 0xfd, 0xe5, 0xe7, 0x0d, 0x07, 0x2e,
  0xec, 0xf1, 0x08, 0xfe, 0xe6, 0x1c, 0x10, 0x1b, 0xf3, 0xed, 0x15, 0xfe,
  0xee, 0x33, 0x0d, 0x1f, 0xf5, 0xfc, 0x0b, 0x07, 0xf9, 0x36, 0x19, 0x18,
  0xe9, 0xf2, 0xfa, 0x19, 0x17, 0x2d, 0x16, 0x19, 0x0b, 0xfd, 0xf7, 0x13,
  0x08, 0x1e, 0xb6, 0xf0, 0xf8, 0xfd, 0xb5, 0x02, 0x0a, 0x1c, 0xdd, 0xfa,
  0xf7, 0x0a, 0xee, 0xf4, 0x02, 0x0c, 0xe4, 0x0c, 0xe1, 0x0b, 0xde, 0xe9,
  0xeb, 0x14, 0xf9, 0x20, 0xf6, 0x00, 0xf3, 0xfc, 0xd7, 0x15, 0x1b, 0x1a,
  0xf3, 0xf5, 0x0f, 0xf3, 0xf4, 0x3e, 0x0e, 0x19, 0xf0, 0x00, 0x0c, 0xff,
  0xfc, 0x3d, 0x03, 0x1b, 0xde, 0xf3, 0xfa, 0x07, 0x02, 0x3f, 0x24, 0x13,
  0xf6, 0xfc, 0xfe, 0x22, 0x14, 0x27, 0x9a, 0xc7, 0xfc, 0xd0, 0xad, 0x02,
  0x00, 0x0a, 0xd9, 0xdb, 0xe6, 0xeb, 0xc7, 0xe9, 0xf0, 0x06, 0xee, 0x01,
  0xf9, 0xfa, 0xe1, 0xf5, 0xdb, 0x05, 0xfd, 0x28, 0xef, 0xee, 0xf9, 0xeb,
  0xe8, 0x14, 0x1e, 0x26, 0xf4, 0xee, 0x05, 0xf7, 0xeb, 0x37, 0x09, 0x26,
  0xff, 0xfa, 0x0d, 0xfd, 0xfd, 0x3b, 0x18, 0x33, 0xcf, 0xf1, 0xfa, 0x0a,
  0x02, 0x51, 0x12, 0x1a, 0xfd, 0xfa, 0xfb, 0x1e, 0x29, 0x2c, 0x81, 0xb4,
  0xda, 0xcb, 0xa4, 0xd6, 0x0f, 0x17, 0xb8, 0xcd, 0xec, 0xf8, 0xd0, 0xd9,
  0x09, 0x02, 0xd1, 0xf0, 0xef, 0xe9, 0xe0, 0xec, 0xcf, 0x05, 0x0f, 0x32,
  0xef, 0xe7, 0xfb, 0xeb, 0xdc, 0x14, 0x24, 0x2e, 0xe8, 0xea, 0x09, 0xea,
  0xe8, 0x37, 0x09, 0x28, 0xf2, 0xf5, 0x13, 0xfd, 0xf5, 0x3a, 0x12, 0x2f,
  0xd2, 0xea, 0x01, 0xe7, 0xfa, 0x4e, 0x24, 0x1b, 0xf6, 0xfd, 0x01, 0x18,
  0x09, 0x0b, 0x8b, 0xa9, 0xd8, 0xe4, 0xbe, 0xcd, 0x11, 0xf0, 0xbe, 0xcc,
  0xe5, 0x07, 0xdd, 0xea, 0x0d, 0x00, 0xec, 0xf0, 0x05, 0xed, 0xe0, 0xf6,
  0xe4, 0x03, 0x03, 0x2d, 0xe8, 0xdc, 0x00, 0xe8, 0xdb, 0x04, 0x29, 0x2c,
  0xd5, 0xdf, 0x08, 0xe3, 0xd7, 0x27, 0x13, 0x2e, 0xe3, 0xec, 0x10, 0xf7,
  0xfe, 0x30, 0x1f, 0x2d, 0xd7, 0xea, 0xf6, 0xf1, 0xf8, 0x39, 0x0d, 0x16,
  0xe4, 0xf4, 0x07, 0x18, 0x08, 0x0b, 0x9c, 0xa8, 0xc7, 0xe9, 0xc0, 0xc0,
  0x0d, 0xf5, 0xbe, 0xdf, 0xd6, 0x01, 0xf2, 0xd6, 0xf9, 0xfd, 0xe2, 0xee,
  0xf8, 0xf7, 0xdb, 0xe6, 0xe2, 0x01, 0xee, 0x2c, 0xf3, 0xcc, 0xd3, 0xde,
  0xdc, 0x14, 0x39, 0x5b, 0xdb, 0xc9, 0xe5, 0xf6, 0xde, 0x3c, 0x2e, 0x4f,
  0xe8, 0xe1, 0x15, 0xfd, 0xe7, 0x32, 0x1b, 0x32, 0xcc, 0xda, 0xff, 0x0a,
  0xf5, 0x53, 0x12, 0x0e, 0xe1, 0xe8, 0x06, 0x22, 0x6e, 0xfd, 0xff, 0xff,
  0x04, 0x00, 0x00, 0x00, 0x20, 0x00, 0x00, 0x00, 0x3e, 0x00, 0x00, 0x00,
  0x02, 0x00, 0x00, 0x00, 0x5c, 0x01, 0x00, 0x00, 0x96, 0xff, 0xff, 0xff,
  0x52, 0x03, 0x00, 0x00, 0x04, 0xfe, 0xff, 0xff, 0x70, 0xfe, 0xff, 0xff,
  0x24, 0xfe, 0xff, 0xff, 0x9a, 0xfd, 0xff, 0xff, 0x04, 0x00, 0x00, 0x00,
  0x80, 0x01, 0x00, 0x00, 0x0c, 0xeb, 0xf6, 0x01, 0x02, 0x02, 0xf2, 0x03,
  0xfb, 0xfd, 0xf9, 0x04, 0xfd, 0x16, 0xff, 0x0e, 0x09, 0x04, 0xfe, 0x06,
  0xfc, 0x09, 0x1e, 0x07, 0x32, 0xb2, 0xb1, 0xe2, 0xd5, 0xb2, 0xad, 0xac,
  0xf6, 0x00, 0xd8, 0xdd, 0xdb, 0x0c, 0xd4, 0xe4, 0xe8, 0xf7, 0xfb, 0xf2,
  0xf1, 0x05, 0xe3, 0xe8, 0x33, 0x99, 0xa3, 0xde, 0xd1, 0x93, 0x94, 0x96,
  0xd3, 0xfe, 0xdd, 0xd8, 0xe8, 0xfc, 0xd1, 0xdf, 0xdc, 0xfb, 0xf1, 0xe0,
  0xe3, 0x18, 0xda, 0xdf, 0x4e, 0x56, 0x50, 0xfb, 0x37, 0x9c, 0xa6, 0xf4,
  0x02, 0x2d, 0x1b, 0xdd, 0xec, 0xea, 0xd2, 0xfa, 0xdb, 0x16, 0x0a, 0xe8,
  0xee, 0x19, 0xec, 0xfe, 0xfa, 0x05, 0x06, 0xfb, 0xf6, 0xfc, 0xed, 0x02,
  0x03, 0x04, 0xf3, 0x00, 0xfb, 0xfe, 0x06, 0x02, 0xf8, 0x05, 0xf8, 0x00,
  0x08, 0xfe, 0xfc, 0x00, 0x04, 0x36, 0xdc, 0xf1, 0xf8, 0x14, 0x0f, 0x16,
  0x2a, 0x22, 0x14, 0x1d, 0x1b, 0x0c, 0x39, 0x20, 0xf9, 0xfa, 0x38, 0x10,
  0x1b, 0xf7, 0xef, 0xf0, 0x0d, 0x3e, 0x06, 0xef, 0xfe, 0x2a, 0x15, 0x1b,
  0x45, 0x2a, 0x12, 0x2b, 0x20, 0x0f, 0x4a, 0x1e, 0xf3, 0xfc, 0x2b, 0x16,
  0x0d, 0xf3, 0x00, 0xfd, 0xfd, 0x0c, 0xe7, 0x07, 0xdb, 0x2a, 0x1b, 0xff,
  0x27, 0xf7, 0xec, 0x22, 0x16, 0x15, 0x2b, 0x16, 0xf1, 0xf1, 0x04, 0x0c,
  0xf8, 0xf5, 0xf7, 0xee, 0xf4, 0xf7, 0x02, 0xf9, 0xf3, 0xfe, 0x09, 0x04,
  0xfd, 0xfd, 0x00, 0xf9, 0xe1, 0x02, 0xfc, 0x02, 0xfe, 0x09, 0x00, 0x03,
  0xfc, 0x00, 0xee, 0x06, 0xdc, 0xec, 0x7f, 0x0b, 0xd6, 0x13, 0x1c, 0x1f,
  0xe5, 0xe4, 0xef, 0xce, 0xdd, 0x10, 0xf8, 0x1c, 0x27, 0x26, 0xdb, 0x0a,
  0xed, 0x02, 0x29, 0x30, 0xc6, 0xe2, 0x62, 0x1b, 0xcb, 0x26, 0x20, 0x2a,
  0xc1, 0xe5, 0xeb, 0xc6, 0xc1, 0x1c, 0xf6, 0x22, 0x29, 0x21, 0xed, 0x09,
  0x03, 0x0c, 0x35, 0x3f, 0xc6, 0xbe, 0x0c, 0xff, 0xcd, 0x22, 0x1e, 0x12,
  0xb4, 0x02, 0xe7, 0xd6, 0xcc, 0x29, 0xfa, 0xfe, 0x24, 0xf9, 0xfb, 0x0c,
  0x0c, 0x20, 0x28, 0x41, 0xfe, 0x0b, 0xf9, 0x04, 0x10, 0xff, 0x1a, 0x07,
  0xff, 0x02, 0x0d, 0x07, 0x2f, 0xfa, 0x0e, 0xf8, 0xfa, 0x02, 0x00, 0xfd,
  0xfc, 0xff, 0x05, 0x00, 0xf5, 0x39, 0xff, 0x27, 0x62, 0x15, 0x26, 0x1e,
  0xfa, 0xfd, 0x2d, 0x2b, 0x2f, 0xd2, 0xfc, 0xd8, 0x03, 0xf2, 0xfd, 0xf0,
  0x04, 0xf8, 0x01, 0xf2, 0xf6, 0x3a, 0xf0, 0x19, 0x62, 0x27, 0x2f, 0x23,
  0x2e, 0xeb, 0x23, 0x36, 0x2e, 0xd4, 0x02, 0xdc, 0xfd, 0xea, 0xfa, 0xf5,
  0x0b, 0xee, 0xf3, 0xe5, 0xf6, 0xeb, 0xbc, 0xfd, 0x22, 0x1e, 0x2b, 0x02,
  0x1e, 0xe6, 0xfc, 0x2e, 0x31, 0xe5, 0x09, 0xee, 0x0e, 0xff, 0xfd, 0xfa,
  0x09, 0xda, 0xe9, 0xe2, 0x26, 0xff, 0xff, 0xff, 0x04, 0x00, 0x00, 0x00,
  0x10, 0x00, 0x00, 0x00, 0x24, 0x05, 0x00, 0x00, 0x26, 0xfd, 0xff, 0xff,
  0x52, 0xfe, 0xff, 0xff, 0x64, 0xff, 0xff, 0xff, 0x42, 0xff, 0xff, 0xff,
  0x04, 0x00, 0x00, 0x00, 0x08, 0x00, 0x00, 0x00, 0xff, 0xff, 0xff, 0xff,
  0x60, 0x00, 0x00, 0x00, 0x56, 0xff, 0xff, 0xff, 0x04, 0x00, 0x00, 0x00,
  0x10, 0x00, 0x00, 0x00, 0xff, 0xff, 0xff, 0xff, 0x31, 0x00, 0x00, 0x00,
  0x28, 0x00, 0x00, 0x00, 0x01, 0x00, 0x00, 0x00, 0xc0, 0xf7, 0xff, 0xff,
  0xc4, 0xf7, 0xff, 0xff, 0x0f, 0x00, 0x00, 0x00, 0x4d, 0x4c, 0x49, 0x52,
  0x20, 0x43, 0x6f, 0x6e, 0x76, 0x65, 0x72, 0x74, 0x65, 0x64, 0x2e, 0x00,
  0x01, 0x00, 0x00, 0x00, 0x14, 0x00, 0x00, 0x00, 0x00, 0x00, 0x0e, 0x00,
  0x18, 0x00, 0x14, 0x00, 0x10, 0x00, 0x0c, 0x00, 0x08, 0x00, 0x04, 0x00,
  0x0e, 0x00, 0x00, 0x00, 0x14, 0x00, 0x00, 0x00, 0x1c, 0x00, 0x00, 0x00,
  0x88, 0x01, 0x00, 0x00, 0x8c, 0x01, 0x00, 0x00, 0x90, 0x01, 0x00, 0x00,
  0x04, 0x00, 0x00, 0x00, 0x6d, 0x61, 0x69, 0x6e, 0x00, 0x00, 0x00, 0x00,
  0x06, 0x00, 0x00, 0x00, 0x4c, 0x01, 0x00, 0x00, 0xf0, 0x00, 0x00, 0x00,
  0x9c, 0x00, 0x00, 0x00, 0x78, 0x00, 0x00, 0x00, 0x40, 0x00, 0x00, 0x00,
  0x04, 0x00, 0x00, 0x00, 0x32, 0xff, 0xff, 0xff, 0x1c, 0x00, 0x00, 0x00,
  0x00, 0x00, 0x00, 0x09, 0x1c, 0x00, 0x00, 0x00, 0x20, 0x00, 0x00, 0x00,
  0x03, 0x00, 0x00, 0x00, 0x00, 0x00, 0x06, 0x00, 0x08, 0x00, 0x04, 0x00,
  0x06, 0x00, 0x00, 0x00, 0x00, 0x00, 0x80, 0x3f, 0x01, 0x00, 0x00, 0x00,
  0x0e, 0x00, 0x00, 0x00, 0x01, 0x00, 0x00, 0x00, 0x0d, 0x00, 0x00, 0x00,
  0x6a, 0xff, 0xff, 0xff, 0x14, 0x00, 0x00, 0x00, 0x00, 0x00, 0x00, 0x08,
  0x10, 0x00, 0x00, 0x00, 0x14, 0x00, 0x00, 0x00, 0x02, 0x00, 0x00, 0x00,
  0x84, 0xf8, 0xff, 0xff, 0x01, 0x00, 0x00, 0x00, 0x0d, 0x00, 0x00, 0x00,
  0x03, 0x00, 0x00, 0x00, 0x0c, 0x00, 0x00, 0x00, 0x04, 0x00, 0x00, 0x00,
  0x03, 0x00, 0x00, 0x00, 0x42, 0xff, 0xff, 0xff, 0x08, 0x00, 0x00, 0x00,
  0x0c, 0x00, 0x00, 0x00, 0x01, 0x00, 0x00, 0x00, 0x0c, 0x00, 0x00, 0x00,
  0x02, 0x00, 0x00, 0x00, 0x0b, 0x00, 0x00, 0x00, 0x02, 0x00, 0x00, 0x00,
  0xbe, 0xff, 0xff, 0xff, 0x14, 0x00, 0x00, 0x00, 0x00, 0x00, 0x00, 0x01,
  0x1c, 0x00, 0x00, 0x00, 0x20, 0x00, 0x00, 0x00, 0x01, 0x00, 0x00, 0x00,
  0xb0, 0xff, 0xff, 0xff, 0x00, 0x00, 0x00, 0x01, 0x08, 0x00, 0x00, 0x00,
  0x08, 0x00, 0x00, 0x00, 0x01, 0x00, 0x00, 0x00, 0x0b, 0x00, 0x00, 0x00,
  0x03, 0x00, 0x00, 0x00, 0x0a, 0x00, 0x00, 0x00, 0x06, 0x00, 0x00, 0x00,
  0x05, 0x00, 0x00, 0x00, 0x00, 0x00, 0x0e, 0x00, 0x18, 0x00, 0x14, 0x00,
  0x10, 0x00, 0x0c, 0x00, 0x0b, 0x00, 0x04, 0x00, 0x0e, 0x00, 0x00, 0x00,
  0x20, 0x00, 0x00, 0x00, 0x00, 0x00, 0x00, 0x01, 0x28, 0x00, 0x00, 0x00,
  0x2c, 0x00, 0x00, 0x00, 0x01, 0x00, 0x00, 0x00, 0x0c, 0x00, 0x10, 0x00,
  0x00, 0x00, 0x0c, 0x00, 0x08, 0x00, 0x07, 0x00, 0x0c, 0x00, 0x00, 0x00,
  0x00, 0x00, 0x00, 0x01, 0x02, 0x00, 0x00, 0x00, 0x02, 0x00, 0x00, 0x00,
  0x01, 0x00, 0x00, 0x00, 0x0a, 0x00, 0x00, 0x00, 0x03, 0x00, 0x00, 0x00,
  0x09, 0x00, 0x00, 0x00, 0x08, 0x00, 0x00, 0x00, 0x07, 0x00, 0x00, 0x00,
  0x00, 0x00, 0x0a, 0x00, 0x0c, 0x00, 0x00, 0x00, 0x08, 0x00, 0x04, 0x00,
  0x0a, 0x00, 0x00, 0x00, 0x08, 0x00, 0x00, 0x00, 0x0c, 0x00, 0x00, 0x00,
  0x01, 0x00, 0x00, 0x00, 0x09, 0x00, 0x00, 0x00, 0x02, 0x00, 0x00, 0x00,
  0x00, 0x00, 0x00, 0x00, 0x01, 0x00, 0x00, 0x00, 0x01, 0x00, 0x00, 0x00,
  0x0e, 0x00, 0x00, 0x00, 0x01, 0x00, 0x00, 0x00, 0x00, 0x00, 0x00, 0x00,
  0x0f, 0x00, 0x00, 0x00, 0xa0, 0x06, 0x00, 0x00, 0x44, 0x06, 0x00, 0x00,
  0x04, 0x06, 0x00, 0x00, 0xa8, 0x05, 0x00, 0x00, 0x4c, 0x05, 0x00, 0x00,
  0xa0, 0x04, 0x00, 0x00, 0xe4, 0x03, 0x00, 0x00, 0x38, 0x03, 0x00, 0x00,
  0x84, 0x02, 0x00, 0x00, 0x20, 0x02, 0x00, 0x00, 0xa4, 0x01, 0x00, 0x00,
  0x28, 0x01, 0x00, 0x00, 0xcc, 0x00, 0x00, 0x00, 0x68, 0x00, 0x00, 0x00,
  0x04, 0x00, 0x00, 0x00, 0xb2, 0xf9, 0xff, 0xff, 0x00, 0x00, 0x00, 0x01,
  0x14, 0x00, 0x00, 0x00, 0x34, 0x00, 0x00, 0x00, 0x0f, 0x00, 0x00, 0x00,
  0x00, 0x00, 0x00, 0x09, 0x3c, 0x00, 0x00, 0x00, 0x9c, 0xf9, 0xff, 0xff,
  0x08, 0x00, 0x00, 0x00, 0x14, 0x00, 0x00, 0x00, 0x01, 0x00, 0x00, 0x00,
  0x80, 0xff, 0xff, 0xff, 0xff, 0xff, 0xff, 0xff, 0x00, 0x00, 0x00, 0x00,
  0x01, 0x00, 0x00, 0x00, 0x00, 0x00, 0x80, 0x3b, 0x0e, 0x00, 0x00, 0x00,
  0x6c, 0x61, 0x62, 0x65, 0x6c, 0x73, 0x5f, 0x73, 0x6f, 0x66, 0x74, 0x6d,
  0x61, 0x78, 0x00, 0x00, 0x02, 0x00, 0x00, 0x00, 0x01, 0x00, 0x00, 0x00,
  0x04, 0x00, 0x00, 0x00, 0x12, 0xfa, 0xff, 0xff, 0x00, 0x00, 0x00, 0x01,
  0x14, 0x00, 0x00, 0x00, 0x34, 0x00, 0x00, 0x00, 0x0e, 0x00, 0x00, 0x00,
  0x00, 0x00, 0x00, 0x09, 0x3c, 0x00, 0x00, 0x00, 0xfc, 0xf9, 0xff, 0xff,
  0x08, 0x00, 0x00, 0x00, 0x14, 0x00, 0x00, 0x00, 0x01, 0x00, 0x00, 0x00,
  0x19, 0x00, 0x00, 0x00, 0x00, 0x00, 0x00, 0x00, 0x00, 0x00, 0x00, 0x00,
  0x01, 0x00, 0x00, 0x00, 0xb8, 0xfe, 0xbd, 0x3d, 0x0c, 0x00, 0x00, 0x00,
  0x4d, 0x61, 0x74, 0x4d, 0x75, 0x6c, 0x3b, 0x61, 0x64, 0x64, 0x5f, 0x32,
  0x00, 0x00, 0x00, 0x00, 0x02, 0x00, 0x00, 0x00, 0x01, 0x00, 0x00, 0x00,
  0x04, 0x00, 0x00, 0x00, 0x72, 0xfa, 0xff, 0xff, 0x00, 0x00, 0x00, 0x01,
  0x14, 0x00, 0x00, 0x00, 0x30, 0x00, 0x00, 0x00, 0x0d, 0x00, 0x00, 0x00,
  0x00, 0x00, 0x00, 0x09, 0x34, 0x00, 0x00, 0x00, 0x5c, 0xfa, 0xff, 0xff,
  0x08, 0x00, 0x00, 0x00, 0x10, 0x00, 0x00, 0x00, 0x01, 0x00, 0x00, 0x00,
  0x80, 0xff, 0xff, 0xff, 0xff, 0xff, 0xff, 0xff, 0x01, 0x00, 0x00, 0x00,
  0x8e, 0x91, 0x9b, 0x3d, 0x09, 0x00, 0x00, 0x00, 0x52, 0x65, 0x73, 0x68,
  0x61, 0x70, 0x65, 0x5f, 0x33, 0x00, 0x00, 0x00, 0x02, 0x00, 0x00, 0x00,
  0x01, 0x00, 0x00, 0x00, 0x60, 0x00, 0x00, 0x00, 0xca, 0xfa, 0xff, 0xff,
  0x00, 0x00, 0x00, 0x01, 0x14, 0x00, 0x00, 0x00, 0x30, 0x00, 0x00, 0x00,
  0x0c, 0x00, 0x00, 0x00, 0x00, 0x00, 0x00, 0x09, 0x4c, 0x00, 0x00, 0x00,
  0xb4, 0xfa, 0xff, 0xff, 0x08, 0x00, 0x00, 0x00, 0x10, 0x00, 0x00, 0x00,
  0x01, 0x00, 0x00, 0x00, 0x80, 0xff, 0xff, 0xff, 0xff, 0xff, 0xff, 0xff,
  0x01, 0x00, 0x00, 0x00, 0x8e, 0x91, 0x9b, 0x3d, 0x21, 0x00, 0x00, 0x00,
  0x52, 0x65, 0x6c, 0x75, 0x5f, 0x31, 0x3b, 0x61, 0x64, 0x64, 0x5f, 0x31,
  0x3b, 0x43, 0x6f, 0x6e, 0x76, 0x32, 0x44, 0x5f, 0x31, 0x3b, 0x73, 0x65,
  0x63, 0x6f, 0x6e, 0x64, 0x5f, 0x62, 0x69, 0x61, 0x73, 0x00, 0x00, 0x00,
  0x04, 0x00, 0x00, 0x00, 0x01, 0x00, 0x00, 0x00, 0x04, 0x00, 0x00, 0x00,
  0x03, 0x00, 0x00, 0x00, 0x08, 0x00, 0x00, 0x00, 0x42, 0xfb, 0xff, 0xff,
  0x00, 0x00, 0x00, 0x01, 0x14, 0x00, 0x00, 0x00, 0x30, 0x00, 0x00, 0x00,
  0x0b, 0x00, 0x00, 0x00, 0x00, 0x00, 0x00, 0x09, 0x4c, 0x00, 0x00, 0x00,
  0x2c, 0xfb, 0xff, 0xff, 0x08, 0x00, 0x00, 0x00, 0x10, 0x00, 0x00, 0x00,
  0x01, 0x00, 0x00, 0x00, 0x80, 0xff, 0xff, 0xff, 0xff, 0xff, 0xff, 0xff,
  0x01, 0x00, 0x00, 0x00, 0x2c, 0x57, 0x06, 0x3e, 0x23, 0x00, 0x00, 0x00,
  0x52, 0x65, 0x6c, 0x75, 0x3b, 0x61, 0x64, 0x64, 0x3b, 0x43, 0x6f, 0x6e,
  0x76, 0x32, 0x44, 0x5f, 0x31, 0x3b, 0x43, 0x6f, 0x6e, 0x76, 0x32, 0x44,
  0x3b, 0x66, 0x69, 0x72, 0x73, 0x74, 0x5f, 0x62, 0x69, 0x61, 0x73, 0x00,
  0x04, 0x00, 0x00, 0x00, 0x01, 0x00, 0x00, 0x00, 0x19, 0x00, 0x00, 0x00,
  0x14, 0x00, 0x00, 0x00, 0x08, 0x00, 0x00, 0x00, 0xba, 0xfb, 0xff, 0xff,
  0x00, 0x00, 0x00, 0x01, 0x14, 0x00, 0x00, 0x00, 0x30, 0x00, 0x00, 0x00,
  0x0a, 0x00, 0x00, 0x00, 0x00, 0x00, 0x00, 0x09, 0x34, 0x00, 0x00, 0x00,
  0xa4, 0xfb, 0xff, 0xff, 0x08, 0x00, 0x00, 0x00, 0x10, 0x00, 0x00, 0x00,
  0x01, 0x00, 0x00, 0x00, 0x80, 0xff, 0xff, 0xff, 0xff, 0xff, 0xff, 0xff,
  0x01, 0x00, 0x00, 0x00, 0x00, 0x00, 0xd0, 0x3d, 0x09, 0x00, 0x00, 0x00,
  0x52, 0x65, 0x73, 0x68, 0x61, 0x70, 0x65, 0x5f, 0x32, 0x00, 0x00, 0x00,
  0x04, 0x00, 0x00, 0x00, 0x01, 0x00, 0x00, 0x00, 0x31, 0x00, 0x00, 0x00,
  0x28, 0x00, 0x00, 0x00, 0x01, 0x00, 0x00, 0x00, 0x1a, 0xfc, 0xff, 0xff,
  0x00, 0x00, 0x00, 0x01, 0x14, 0x00, 0x00, 0x00, 0x84, 0x00, 0x00, 0x00,
  0x09, 0x00, 0x00, 0x00, 0x00, 0x00, 0x00, 0x09, 0x84, 0x00, 0x00, 0x00,
  0x04, 0xfc, 0xff, 0xff, 0x08, 0x00, 0x00, 0x00, 0x48, 0x00, 0x00, 0x00,
  0x08, 0x00, 0x00, 0x00, 0x00, 0x00, 0x00, 0x00, 0x00, 0x00, 0x00, 0x00,
  0x00, 0x00, 0x00, 0x00, 0x00, 0x00, 0x00, 0x00, 0x00, 0x00, 0x00, 0x00,
  0x00, 0x00, 0x00, 0x00, 0x00, 0x00, 0x00, 0x00, 0x00, 0x00, 0x00, 0x00,
  0x00, 0x00, 0x00, 0x00, 0x00, 0x00, 0x00, 0x00, 0x00, 0x00, 0x00, 0x00,
  0x00, 0x00, 0x00, 0x00, 0x00, 0x00, 0x00, 0x00, 0x00, 0x00, 0x00, 0x00,
  0x00, 0x00, 0x00, 0x00, 0x00, 0x00, 0x00, 0x00, 0x08, 0x00, 0x00, 0x00,
  0xcb, 0xda, 0x2c, 0x3a, 0x63, 0xc0, 0x44, 0x3a, 0xeb, 0xb6, 0xa0, 0x3a,
  0xa3, 0xe6, 0x7d, 0x3a, 0x0f, 0xe8, 0x7e, 0x3a, 0x19, 0x28, 0x52, 0x3a,
  0x12, 0xca, 0x83, 0x3a, 0x74, 0xef, 0x53, 0x3a, 0x06, 0x00, 0x00, 0x00,
  0x43, 0x6f, 0x6e, 0x76, 0x32, 0x44, 0x00, 0x00, 0x04, 0x00, 0x00, 0x00,
  0x08, 0x00, 0x00, 0x00, 0x0a, 0x00, 0x00, 0x00, 0x08, 0x00, 0x00, 0x00,
  0x01, 0x00, 0x00, 0x00, 0xca, 0xfc, 0xff, 0xff, 0x00, 0x00, 0x00, 0x01,
  0x14, 0x00, 0x00, 0x00, 0x84, 0x00, 0x00, 0x00, 0x08, 0x00, 0x00, 0x00,
  0x00, 0x00, 0x00, 0x02, 0x88, 0x00, 0x00, 0x00, 0xb4, 0xfc, 0xff, 0xff,
  0x08, 0x00, 0x00, 0x00, 0x48, 0x00, 0x00, 0x00, 0x08, 0x00, 0x00, 0x00,
  0x00, 0x00, 0x00, 0x00, 0x00, 0x00, 0x00, 0x00, 0x00, 0x00, 0x00, 0x00,
  0x00, 0x00, 0x00, 0x00, 0x00, 0x00, 0x00, 0x00, 0x00, 0x00, 0x00, 0x00,
  0x00, 0x00, 0x00, 0x00, 0x00, 0x00, 0x00, 0x00, 0x00, 0x00, 0x00, 0x00,
  0x00, 0x00, 0x00, 0x00, 0x00, 0x00, 0x00, 0x00, 0x00, 0x00, 0x00, 0x00,
  0x00, 0x00, 0x00, 0x00, 0x00, 0x00, 0x00, 0x00, 0x00, 0x00, 0x00, 0x00,
  0x00, 0x00, 0x00, 0x00, 0x08, 0x00, 0x00, 0x00, 0xc5, 0x71, 0x8c, 0x38,
  0x50, 0xdc, 0x9f, 0x38, 0x9f, 0x94, 0x02, 0x39, 0x64, 0x4b, 0xce, 0x38,
  0x8c, 0x1c, 0xcf, 0x38, 0x94, 0xc0, 0xaa, 0x38, 0x5d, 0x28, 0xd6, 0x38,
  0x8e, 0x32, 0xac, 0x38, 0x0a, 0x00, 0x00, 0x00, 0x66, 0x69, 0x72, 0x73,
  0x74, 0x5f, 0x62, 0x69, 0x61, 0x73, 0x00, 0x00, 0x01, 0x00, 0x00, 0x00,
  0x08, 0x00, 0x00, 0x00, 0x72, 0xfd, 0xff, 0xff, 0x00, 0x00, 0x00, 0x01,
  0x14, 0x00, 0x00, 0x00, 0x88, 0x00, 0x00, 0x00, 0x07, 0x00, 0x00, 0x00,
  0x00, 0x00, 0x00, 0x09, 0x8c, 0x00, 0x00, 0x00, 0x5c, 0xfd, 0xff, 0xff,
  0x08, 0x00, 0x00, 0x00, 0x4c, 0x00, 0x00, 0x00, 0x08, 0x00, 0x00, 0x00,
  0x00, 0x00, 0x00, 0x00, 0x00, 0x00, 0x00, 0x00, 0x00, 0x00, 0x00, 0x00,
  0x00, 0x00, 0x00, 0x00, 0x00, 0x00, 0x00, 0x00, 0x00, 0x00, 0x00, 0x00,
  0x00, 0x00, 0x00, 0x00, 0x00, 0x00, 0x00, 0x00, 0x00, 0x00, 0x00, 0x00,
  0x00, 0x00, 0x00, 0x00, 0x00, 0x00, 0x00, 0x00, 0x00, 0x00, 0x00, 0x00,
  0x00, 0x00, 0x00, 0x00, 0x00, 0x00, 0x00, 0x00, 0x00, 0x00, 0x00, 0x00,
  0x00, 0x00, 0x00, 0x00, 0x00, 0x00, 0x00, 0x00, 0x08, 0x00, 0x00, 0x00,
  0x2e, 0xc1, 0x0a, 0x3a, 0x58, 0xb1, 0x25, 0x3a, 0x7f, 0xe0, 0x11, 0x3a,
  0xf4, 0xb2, 0xe0, 0x39, 0x8b, 0x88, 0x03, 0x3a, 0x8f, 0xfa, 0xfd, 0x39,
  0x7c, 0xbf, 0x2d, 0x3a, 0x04, 0x38, 0x30, 0x3a, 0x08, 0x00, 0x00, 0x00,
  0x43, 0x6f, 0x6e, 0x76, 0x32, 0x44, 0x5f, 0x31, 0x00, 0x00, 0x00, 0x00,
  0x04, 0x00, 0x00, 0x00, 0x08, 0x00, 0x00, 0x00, 0x0a, 0x00, 0x00, 0x00,
  0x08, 0x00, 0x00, 0x00, 0x08, 0x00, 0x00, 0x00, 0x2a, 0xfe, 0xff, 0xff,
  0x00, 0x00, 0x00, 0x01, 0x14, 0x00, 0x00, 0x00, 0x84, 0x00, 0x00, 0x00,
  0x06, 0x00, 0x00, 0x00, 0x00, 0x00, 0x00, 0x02, 0x88, 0x00, 0x00, 0x00,
  0x14, 0xfe, 0xff, 0xff, 0x08, 0x00, 0x00, 0x00, 0x48, 0x00, 0x00, 0x00,
  0x08, 0x00, 0x00, 0x00, 0x00, 0x00, 0x00, 0x00, 0x00, 0x00, 0x00, 0x00,
  0x00, 0x00, 0x00, 0x00, 0x00, 0x00, 0x00, 0x00, 0x00, 0x00, 0x00, 0x00,
  0x00, 0x00, 0x00, 0x00, 0x00, 0x00, 0x00, 0x00, 0x00, 0x00, 0x00, 0x00,
  0x00, 0x00, 0x00, 0x00, 0x00, 0x00, 0x00, 0x00, 0x00, 0x00, 0x00, 0x00,
  0x00, 0x00, 0x00, 0x00, 0x00, 0x00, 0x00, 0x00, 0x00, 0x00, 0x00, 0x00,
  0x00, 0x00, 0x00, 0x00, 0x00, 0x00, 0x00, 0x00, 0x08, 0x00, 0x00, 0x00,
  0xbb, 0xa0, 0x91, 0x38, 0x80, 0xe6, 0xad, 0x38, 0x5e, 0x1a, 0x99, 0x38,
  0x5e, 0xd4, 0x6b, 0x38, 0x86, 0x0c, 0x8a, 0x38, 0xa3, 0x47, 0x85, 0x38,
  0xca, 0x5a, 0xb6, 0x38, 0xa7, 0xf2, 0xb8, 0x38, 0x0b, 0x00, 0x00, 0x00,
  0x73, 0x65, 0x63, 0x6f, 0x6e, 0x64, 0x5f, 0x62, 0x69, 0x61, 0x73, 0x00,
  0x01, 0x00, 0x00, 0x00, 0x08, 0x00, 0x00, 0x00, 0xd2, 0xfe, 0xff, 0xff,
  0x00, 0x00, 0x00, 0x01, 0x14, 0x00, 0x00, 0x00, 0x34, 0x00, 0x00, 0x00,
  0x05, 0x00, 0x00, 0x00, 0x00, 0x00, 0x00, 0x09, 0x34, 0x00, 0x00, 0x00,
  0xbc, 0xfe, 0xff, 0xff, 0x08, 0x00, 0x00, 0x00, 0x14, 0x00, 0x00, 0x00,
  0x01, 0x00, 0x00, 0x00, 0x00, 0x00, 0x00, 0x00, 0x00, 0x00, 0x00, 0x00,
  0x00, 0x00, 0x00, 0x00, 0x01, 0x00, 0x00, 0x00, 0xc6, 0x23, 0x03, 0x3b,
  0x06, 0x00, 0x00, 0x00, 0x4d, 0x61, 0x74, 0x4d, 0x75, 0x6c, 0x00, 0x00,
  0x02, 0x00, 0x00, 0x00, 0x04, 0x00, 0x00, 0x00, 0x60, 0x00, 0x00, 0x00,
  0x2a, 0xff, 0xff, 0xff, 0x00, 0x00, 0x00, 0x01, 0x14, 0x00, 0x00, 0x00,
  0x30, 0x00, 0x00, 0x00, 0x04, 0x00, 0x00, 0x00, 0x00, 0x00, 0x00, 0x02,
  0x38, 0x00, 0x00, 0x00, 0x14, 0xff, 0xff, 0xff, 0x08, 0x00, 0x00, 0x00,
  0x10, 0x00, 0x00, 0x00, 0x01, 0x00, 0x00, 0x00, 0x00, 0x00, 0x00, 0x00,
  0x00, 0x00, 0x00, 0x00, 0x01, 0x00, 0x00, 0x00, 0x72, 0x62, 0x1f, 0x39,
  0x0d, 0x00, 0x00, 0x00, 0x66, 0x69, 0x6e, 0x61, 0x6c, 0x5f, 0x66, 0x63,
  0x5f, 0x62, 0x69, 0x61, 0x73, 0x00, 0x00, 0x00, 0x01, 0x00, 0x00, 0x00,
  0x04, 0x00, 0x00, 0x00, 0x82, 0xff, 0xff, 0xff, 0x00, 0x00, 0x00, 0x01,
  0x14, 0x00, 0x00, 0x00, 0x14, 0x00, 0x00, 0x00, 0x03, 0x00, 0x00, 0x00,
  0x00, 0x00, 0x00, 0x02, 0x1c, 0x00, 0x00, 0x00, 0xc4, 0xff, 0xff, 0xff,
  0x0f, 0x00, 0x00, 0x00, 0x52, 0x65, 0x73, 0x68, 0x61, 0x70, 0x65, 0x5f,
  0x33, 0x2f, 0x73, 0x68, 0x61, 0x70, 0x65, 0x00, 0x01, 0x00, 0x00, 0x00,
  0x02, 0x00, 0x00, 0x00, 0xbe, 0xff, 0xff, 0xff, 0x00, 0x00, 0x00, 0x01,
  0x18, 0x00, 0x00, 0x00, 0x18, 0x00, 0x00, 0x00, 0x02, 0x00, 0x00, 0x00,
  0x00, 0x00, 0x00, 0x02, 0x20, 0x00, 0x00, 0x00, 0x04, 0x00, 0x04, 0x00,
  0x04, 0x00, 0x00, 0x00, 0x0f, 0x00, 0x00, 0x00, 0x52, 0x65, 0x73, 0x68,
  0x61, 0x70, 0x65, 0x5f, 0x32, 0x2f, 0x73, 0x68, 0x61, 0x70, 0x65, 0x00,
  0x01, 0x00, 0x00, 0x00, 0x04, 0x00, 0x00, 0x00, 0x00, 0x00, 0x16, 0x00,
  0x1c, 0x00, 0x18, 0x00, 0x17, 0x00, 0x10, 0x00, 0x0c, 0x00, 0x08, 0x00,
  0x00, 0x00, 0x00, 0x00, 0x00, 0x00, 0x07, 0x00, 0x16, 0x00, 0x00, 0x00,
  0x00, 0x00, 0x00, 0x01, 0x20, 0x00, 0x00, 0x00, 0x40, 0x00, 0x00, 0x00,
  0x01, 0x00, 0x00, 0x00, 0x00, 0x00, 0x00, 0x09, 0x44, 0x00, 0x00, 0x00,
  0x0c, 0x00, 0x0c, 0x00, 0x00, 0x00, 0x00, 0x00, 0x08, 0x00, 0x04, 0x00,
  0x0c, 0x00, 0x00, 0x00, 0x08, 0x00, 0x00, 0x00, 0x14, 0x00, 0x00, 0x00,
  0x01, 0x00, 0x00, 0x00, 0x80, 0xff, 0xff, 0xff, 0xff, 0xff, 0xff, 0xff,
  0x00, 0x00, 0x00, 0x00, 0x01, 0x00, 0x00, 0x00, 0x00, 0x00, 0xd0, 0x3d,
  0x09, 0x00, 0x00, 0x00, 0x52, 0x65, 0x73, 0x68, 0x61, 0x70, 0x65, 0x5f,
  0x31, 0x00, 0x00, 0x00, 0x02, 0x00, 0x00, 0x00, 0x01, 0x00, 0x00, 0x00,
  0xa8, 0x07, 0x00, 0x00, 0x04, 0x00, 0x00, 0x00, 0x58, 0x00, 0x00, 0x00,
  0x38, 0x00, 0x00, 0x00, 0x18, 0x00, 0x00, 0x00, 0x04, 0x00, 0x00, 0x00,
  0xe0, 0xff, 0xff, 0xff, 0x19, 0x00, 0x00, 0x00, 0x02, 0x00, 0x00, 0x00,
  0x00, 0x00, 0x00, 0x19, 0xf0, 0xff, 0xff, 0xff, 0x09, 0x00, 0x00, 0x00,
  0x04, 0x00, 0x00, 0x00, 0x00, 0x00, 0x00, 0x09, 0x0c, 0x00, 0x10, 0x00,
  0x0f, 0x00, 0x00, 0x00, 0x08, 0x00, 0x04, 0x00, 0x0c, 0x00, 0x00, 0x00,
  0x03, 0x00, 0x00, 0x00, 0x03, 0x00, 0x00, 0x00, 0x00, 0x00, 0x00, 0x03,
  0x0c, 0x00, 0x0c, 0x00, 0x0b, 0x00, 0x00, 0x00, 0x00, 0x00, 0x04, 0x00,
  0x0c, 0x00, 0x00, 0x00, 0x16, 0x00, 0x00, 0x00, 0x00, 0x00, 0x00, 0x16
};
unsigned int g_tiny_embedding_conv_len = 9096;
